#include "magic_wand_model_data.h"

// We need to keep the data array aligned on some architectures.
#ifdef __has_attribute
#define HAVE_ATTRIBUTE(x) __has_attribute(x)
#else
#define HAVE_ATTRIBUTE(x) 0
#endif
#if HAVE_ATTRIBUTE(aligned) || (defined(__GNUC__) && !defined(__clang__))
#define DATA_ALIGN_ATTRIBUTE __attribute__((aligned(4)))
#else
#define DATA_ALIGN_ATTRIBUTE
#endif

const unsigned char g_magic_wand_model_data[] DATA_ALIGN_ATTRIBUTE = {
  // Paste the data of the char array in `src/model.cc` here
  0x1c, 0x00, 0x00, 0x00, 0x54, 0x46, 0x4c, 0x33, 0x14, 0x00, 0x20, 0x00,
  0x04, 0x00, 0x08, 0x00, 0x0c, 0x00, 0x10, 0x00, 0x14, 0x00, 0x00, 0x00,
  0x18, 0x00, 0x1c, 0x00, 0x14, 0x00, 0x00, 0x00, 0x03, 0x00, 0x00, 0x00,
  0x18, 0x00, 0x00, 0x00, 0x2c, 0x00, 0x00, 0x00, 0xd8, 0x00, 0x00, 0x00,
  0x2c, 0x00, 0x00, 0x00, 0x80, 0x00, 0x00, 0x00, 0x78, 0x00, 0x00, 0x00,
  0x05, 0x00, 0x00, 0x00, 0x28, 0x07, 0x00, 0x00, 0x44, 0x06, 0x00, 0x00,
  0xbc, 0x03, 0x00, 0x00, 0xf8, 0x02, 0x00, 0x00, 0xac, 0x01, 0x00, 0x00,
  0x01, 0x00, 0x00, 0x00, 0xd0, 0x00, 0x00, 0x00, 0x14, 0x00, 0x00, 0x00,
  0xdc, 0x32, 0x00, 0x00, 0xd8, 0x32, 0x00, 0x00, 0xd0, 0x31, 0x00, 0x00,
  0x1c, 0x31, 0x00, 0x00, 0x74, 0x30, 0x00, 0x00, 0xfc, 0x2f, 0x00, 0x00,
  0x90, 0x2f, 0x00, 0x00, 0x40, 0x13, 0x00, 0x00, 0xec, 0x11, 0x00, 0x00,
  0x10, 0x10, 0x00, 0x00, 0xb4, 0x07, 0x00, 0x00, 0xb0, 0x32, 0x00, 0x00,
  0xac, 0x32, 0x00, 0x00, 0xa8, 0x32, 0x00, 0x00, 0xa4, 0x32, 0x00, 0x00,
  0xa0, 0x32, 0x00, 0x00, 0x9c, 0x32, 0x00, 0x00, 0x98, 0x32, 0x00, 0x00,
  0x94, 0x32, 0x00, 0x00, 0x3c, 0x00, 0x00, 0x00, 0x00, 0x00, 0x00, 0x00,
  0x01, 0x00, 0x00, 0x00, 0x0c, 0x00, 0x00, 0x00, 0x08, 0x00, 0x0c, 0x00,
  0x04, 0x00, 0x08, 0x00, 0x08, 0x00, 0x00, 0x00, 0x08, 0x00, 0x00, 0x00,
  0x13, 0x00, 0x00, 0x00, 0x13, 0x00, 0x00, 0x00, 0x6d, 0x69, 0x6e, 0x5f,
  0x72, 0x75, 0x6e, 0x74, 0x69, 0x6d, 0x65, 0x5f, 0x76, 0x65, 0x72, 0x73,
  0x69, 0x6f, 0x6e, 0x00, 0xb6, 0xce, 0xff, 0xff, 0x04, 0x00, 0x00, 0x00,
  0x10, 0x00, 0x00, 0x00, 0x31, 0x2e, 0x35, 0x2e, 0x30, 0x00, 0x00, 0x00,
  0x00, 0x00, 0x00, 0x00, 0x00, 0x00, 0x00, 0x00, 0x0f, 0x00, 0x00, 0x00,
  0x4d, 0x4c, 0x49, 0x52, 0x20, 0x43, 0x6f, 0x6e, 0x76, 0x65, 0x72, 0x74,
  0x65, 0x64, 0x2e, 0x00, 0x00, 0x00, 0x0e, 0x00, 0x18, 0x00, 0x04, 0x00,
  0x08, 0x00, 0x0c, 0x00, 0x10, 0x00, 0x14, 0x00, 0x0e, 0x00, 0x00, 0x00,
  0x14, 0x00, 0x00, 0x00, 0x5c, 0x00, 0x00, 0x00, 0x60, 0x00, 0x00, 0x00,
  0x64, 0x00, 0x00, 0x00, 0x84, 0x00, 0x00, 0x00, 0x12, 0x00, 0x00, 0x00,
  0x9c, 0x31, 0x00, 0x00, 0x2c, 0x31, 0x00, 0x00, 0x88, 0x30, 0x00, 0x00,
  0xe0, 0x2f, 0x00, 0x00, 0x38, 0x2f, 0x00, 0x00, 0xd4, 0x2e, 0x00, 0x00,
  0x6c, 0x2e, 0x00, 0x00, 0x18, 0x12, 0x00, 0x00, 0xbc, 0x10, 0x00, 0x00,
  0xe0, 0x0e, 0x00, 0x00, 0x0c, 0x06, 0x00, 0x00, 0x28, 0x05, 0x00, 0x00,
  0xe8, 0x03, 0x00, 0x00, 0x3c, 0x03, 0x00, 0x00, 0x98, 0x02, 0x00, 0x00,
  0xd4, 0x01, 0x00, 0x00, 0x10, 0x01, 0x00, 0x00, 0x84, 0x00, 0x00, 0x00,
  0x01, 0x00, 0x00, 0x00, 0x00, 0x00, 0x00, 0x00, 0x01, 0x00, 0x00, 0x00,
  0x11, 0x00, 0x00, 0x00, 0x08, 0x00, 0x00, 0x00, 0x74, 0x05, 0x00, 0x00,
  0x94, 0x04, 0x00, 0x00, 0x78, 0x03, 0x00, 0x00, 0xbc, 0x02, 0x00, 0x00,
  0x30, 0x02, 0x00, 0x00, 0x50, 0x01, 0x00, 0x00, 0xa8, 0x00, 0x00, 0x00,
  0x10, 0x00, 0x00, 0x00, 0x04, 0x00, 0x00, 0x00, 0x6d, 0x61, 0x69, 0x6e,
  0x00, 0x00, 0x00, 0x00, 0x7a, 0xff, 0xff, 0xff, 0x00, 0x00, 0x00, 0x09,
  0x04, 0x00, 0x00, 0x00, 0x1c, 0x00, 0x00, 0x00, 0x10, 0x00, 0x00, 0x00,
  0x04, 0x00, 0x00, 0x00, 0xb2, 0xcf, 0xff, 0xff, 0x00, 0x00, 0x80, 0x3f,
  0x01, 0x00, 0x00, 0x00, 0x11, 0x00, 0x00, 0x00, 0x01, 0x00, 0x00, 0x00,
  0x10, 0x00, 0x00, 0x00, 0xa0, 0xfa, 0xff, 0xff, 0x19, 0x00, 0x00, 0x00,
  0x00, 0x00, 0x00, 0x19, 0x01, 0x00, 0x00, 0x00, 0x40, 0xcf, 0xff, 0xff,
  0x14, 0x00, 0x00, 0x00, 0x12, 0x00, 0x00, 0x00, 0x18, 0x00, 0x00, 0x00,
  0x30, 0x00, 0x00, 0x00, 0x20, 0x00, 0x00, 0x00, 0x02, 0x00, 0x00, 0x00,
  0x01, 0x00, 0x00, 0x00, 0x04, 0x00, 0x00, 0x00, 0x08, 0x00, 0x00, 0x00,
  0x49, 0x64, 0x65, 0x6e, 0x74, 0x69, 0x74, 0x79, 0x00, 0x00, 0x00, 0x00,
  0x02, 0x00, 0x00, 0x00, 0xff, 0xff, 0xff, 0xff, 0x04, 0x00, 0x00, 0x00,
  0x24, 0xd0, 0xff, 0xff, 0x00, 0x00, 0x0e, 0x00, 0x18, 0x00, 0x08, 0x00,
  0x0c, 0x00, 0x10, 0x00, 0x07, 0x00, 0x14, 0x00, 0x0e, 0x00, 0x00, 0x00,
  0x00, 0x00, 0x00, 0x08, 0x03, 0x00, 0x00, 0x00, 0x18, 0x00, 0x00, 0x00,
  0x0c, 0x00, 0x00, 0x00, 0x04, 0x00, 0x00, 0x00, 0x40, 0xcf, 0xff, 0xff,
  0x01, 0x00, 0x00, 0x00, 0x10, 0x00, 0x00, 0x00, 0x03, 0x00, 0x00, 0x00,
  0x0f, 0x00, 0x00, 0x00, 0x07, 0x00, 0x00, 0x00, 0x04, 0x00, 0x00, 0x00,
  0xc8, 0xcf, 0xff, 0xff, 0x14, 0x00, 0x00, 0x00, 0x11, 0x00, 0x00, 0x00,
  0x18, 0x00, 0x00, 0x00, 0x5c, 0x00, 0x00, 0x00, 0x4c, 0x00, 0x00, 0x00,
  0x02, 0x00, 0x00, 0x00, 0x01, 0x00, 0x00, 0x00, 0x04, 0x00, 0x00, 0x00,
  0x34, 0x00, 0x00, 0x00, 0x73, 0x65, 0x71, 0x75, 0x65, 0x6e, 0x74, 0x69,
  0x61, 0x6c, 0x2f, 0x64, 0x65, 0x6e, 0x73, 0x65, 0x5f, 0x31, 0x2f, 0x4d,
  0x61, 0x74, 0x4d, 0x75, 0x6c, 0x3b, 0x73, 0x65, 0x71, 0x75, 0x65, 0x6e,
  0x74, 0x69, 0x61, 0x6c, 0x2f, 0x64, 0x65, 0x6e, 0x73, 0x65, 0x5f, 0x31,
  0x2f, 0x42, 0x69, 0x61, 0x73, 0x41, 0x64, 0x64, 0x00, 0x00, 0x00, 0x00,
  0x02, 0x00, 0x00, 0x00, 0xff, 0xff, 0xff, 0xff, 0x04, 0x00, 0x00, 0x00,
  0xc8, 0xcf, 0xff, 0xff, 0xda, 0xfc, 0xff, 0xff, 0x00, 0x00, 0x00, 0x08,
  0x03, 0x00, 0x00, 0x00, 0x24, 0x00, 0x00, 0x00, 0x18, 0x00, 0x00, 0x00,
  0x0c, 0x00, 0x00, 0x00, 0x00, 0x00, 0x06, 0x00, 0x08, 0x00, 0x07, 0x00,
  0x06, 0x00, 0x00, 0x00, 0x00, 0x00, 0x00, 0x01, 0x01, 0x00, 0x00, 0x00,
  0x0f, 0x00, 0x00, 0x00, 0x03, 0x00, 0x00, 0x00, 0x0e, 0x00, 0x00, 0x00,
  0x06, 0x00, 0x00, 0x00, 0x03, 0x00, 0x00, 0x00, 0xe8, 0xfb, 0xff, 0xff,
  0x09, 0x00, 0x00, 0x00, 0x00, 0x00, 0x00, 0x09, 0x01, 0x00, 0x00, 0x00,
  0x88, 0xd0, 0xff, 0xff, 0x14, 0x00, 0x00, 0x00, 0x10, 0x00, 0x00, 0x00,
  0x18, 0x00, 0x00, 0x00, 0x6c, 0x00, 0x00, 0x00, 0x5c, 0x00, 0x00, 0x00,
  0x02, 0x00, 0x00, 0x00, 0x01, 0x00, 0x00, 0x00, 0x10, 0x00, 0x00, 0x00,
  0x46, 0x00, 0x00, 0x00, 0x73, 0x65, 0x71, 0x75, 0x65, 0x6e, 0x74, 0x69,
  0x61, 0x6c, 0x2f, 0x64, 0x65, 0x6e, 0x73, 0x65, 0x2f, 0x4d, 0x61, 0x74,
  0x4d, 0x75, 0x6c, 0x3b, 0x73, 0x65, 0x71, 0x75, 0x65, 0x6e, 0x74, 0x69,
  0x61, 0x6c, 0x2f, 0x64, 0x65, 0x6e, 0x73, 0x65, 0x2f, 0x52, 0x65, 0x6c,
  0x75, 0x3b, 0x73, 0x65, 0x71, 0x75, 0x65, 0x6e, 0x74, 0x69, 0x61, 0x6c,
  0x2f, 0x64, 0x65, 0x6e, 0x73, 0x65, 0x2f, 0x42, 0x69, 0x61, 0x73, 0x41,
  0x64, 0x64, 0x00, 0x00, 0x02, 0x00, 0x00, 0x00, 0xff, 0xff, 0xff, 0xff,
  0x10, 0x00, 0x00, 0x00, 0xa8, 0xd1, 0xff, 0xff, 0x00, 0x00, 0x0a, 0x00,
  0x10, 0x00, 0x04, 0x00, 0x08, 0x00, 0x0c, 0x00, 0x0a, 0x00, 0x00, 0x00,
  0x02, 0x00, 0x00, 0x00, 0x10, 0x00, 0x00, 0x00, 0x04, 0x00, 0x00, 0x00,
  0x01, 0x00, 0x00, 0x00, 0x0e, 0x00, 0x00, 0x00, 0x02, 0x00, 0x00, 0x00,
  0x0d, 0x00, 0x00, 0x00, 0x05, 0x00, 0x00, 0x00, 0xa8, 0xfc, 0xff, 0xff,
  0x16, 0x00, 0x00, 0x00, 0x00, 0x00, 0x00, 0x16, 0x01, 0x00, 0x00, 0x00,
  0x48, 0xd1, 0xff, 0xff, 0x14, 0x00, 0x00, 0x00, 0x0f, 0x00, 0x00, 0x00,
  0x18, 0x00, 0x00, 0x00, 0x40, 0x00, 0x00, 0x00, 0x30, 0x00, 0x00, 0x00,
  0x02, 0x00, 0x00, 0x00, 0x01, 0x00, 0x00, 0x00, 0x70, 0x00, 0x00, 0x00,
  0x1a, 0x00, 0x00, 0x00, 0x73, 0x65, 0x71, 0x75, 0x65, 0x6e, 0x74, 0x69,
  0x61, 0x6c, 0x2f, 0x66, 0x6c, 0x61, 0x74, 0x74, 0x65, 0x6e, 0x2f, 0x52,
  0x65, 0x73, 0x68, 0x61, 0x70, 0x65, 0x00, 0x00, 0x02, 0x00, 0x00, 0x00,
  0xff, 0xff, 0xff, 0xff, 0x70, 0x00, 0x00, 0x00, 0x2c, 0xd1, 0xff, 0xff,
  0x3e, 0xfe, 0xff, 0xff, 0x00, 0x00, 0x00, 0x05, 0x01, 0x00, 0x00, 0x00,
  0x38, 0x00, 0x00, 0x00, 0x2c, 0x00, 0x00, 0x00, 0x14, 0x00, 0x00, 0x00,
  0x00, 0x00, 0x0e, 0x00, 0x14, 0x00, 0x00, 0x00, 0x10, 0x00, 0x0c, 0x00,
  0x08, 0x00, 0x04, 0x00, 0x0e, 0x00, 0x00, 0x00, 0x03, 0x00, 0x00, 0x00,
  0x01, 0x00, 0x00, 0x00, 0x03, 0x00, 0x00, 0x00, 0x01, 0x00, 0x00, 0x00,
  0x01, 0x00, 0x00, 0x00, 0x0d, 0x00, 0x00, 0x00, 0x01, 0x00, 0x00, 0x00,
  0x0c, 0x00, 0x00, 0x00, 0xe8, 0xd1, 0xff, 0xff, 0x14, 0x00, 0x00, 0x00,
  0x0e, 0x00, 0x00, 0x00, 0x20, 0x00, 0x00, 0x00, 0x58, 0x00, 0x00, 0x00,
  0x40, 0x00, 0x00, 0x00, 0x04, 0x00, 0x00, 0x00, 0x01, 0x00, 0x00, 0x00,
  0x07, 0x00, 0x00, 0x00, 0x01, 0x00, 0x00, 0x00, 0x10, 0x00, 0x00, 0x00,
  0x22, 0x00, 0x00, 0x00, 0x73, 0x65, 0x71, 0x75, 0x65, 0x6e, 0x74, 0x69,
  0x61, 0x6c, 0x2f, 0x6d, 0x61, 0x78, 0x5f, 0x70, 0x6f, 0x6f, 0x6c, 0x69,
  0x6e, 0x67, 0x32, 0x64, 0x5f, 0x31, 0x2f, 0x4d, 0x61, 0x78, 0x50, 0x6f,
  0x6f, 0x6c, 0x00, 0x00, 0x04, 0x00, 0x00, 0x00, 0xff, 0xff, 0xff, 0xff,
  0x07, 0x00, 0x00, 0x00, 0x01, 0x00, 0x00, 0x00, 0x10, 0x00, 0x00, 0x00,
  0xe4, 0xd1, 0xff, 0xff, 0x1a, 0xfe, 0xff, 0xff, 0x00, 0x00, 0x00, 0x01,
  0x24, 0x00, 0x00, 0x00, 0x18, 0x00, 0x00, 0x00, 0x04, 0x00, 0x00, 0x00,
  0x0c, 0xfe, 0xff, 0xff, 0x01, 0x00, 0x00, 0x00, 0x01, 0x00, 0x00, 0x00,
  0x00, 0x00, 0x00, 0x01, 0x01, 0x00, 0x00, 0x00, 0x0c, 0x00, 0x00, 0x00,
  0x03, 0x00, 0x00, 0x00, 0x0b, 0x00, 0x00, 0x00, 0x09, 0x00, 0x00, 0x00,
  0x02, 0x00, 0x00, 0x00, 0x90, 0xd2, 0xff, 0xff, 0x14, 0x00, 0x00, 0x00,
  0x0d, 0x00, 0x00, 0x00, 0x20, 0x00, 0x00, 0x00, 0xb8, 0x00, 0x00, 0x00,
  0xa0, 0x00, 0x00, 0x00, 0x04, 0x00, 0x00, 0x00, 0x01, 0x00, 0x00, 0x00,
  0x15, 0x00, 0x00, 0x00, 0x01, 0x00, 0x00, 0x00, 0x10, 0x00, 0x00, 0x00,
  0x83, 0x00, 0x00, 0x00, 0x73, 0x65, 0x71, 0x75, 0x65, 0x6e, 0x74, 0x69,
  0x61, 0x6c, 0x2f, 0x63, 0x6f, 0x6e, 0x76, 0x32, 0x64, 0x5f, 0x31, 0x2f,
  0x52, 0x65, 0x6c, 0x75, 0x3b, 0x73, 0x65, 0x71, 0x75, 0x65, 0x6e, 0x74,
  0x69, 0x61, 0x6c, 0x2f, 0x63, 0x6f, 0x6e, 0x76, 0x32, 0x64, 0x5f, 0x31,
  0x2f, 0x42, 0x69, 0x61, 0x73, 0x41, 0x64, 0x64, 0x3b, 0x73, 0x65, 0x71,
  0x75, 0x65, 0x6e, 0x74, 0x69, 0x61, 0x6c, 0x2f, 0x63, 0x6f, 0x6e, 0x76,
  0x32, 0x64, 0x5f, 0x31, 0x2f, 0x43, 0x6f, 0x6e, 0x76, 0x32, 0x44, 0x3b,
  0x73, 0x65, 0x71, 0x75, 0x65, 0x6e, 0x74, 0x69, 0x61, 0x6c, 0x2f, 0x63,
  0x6f, 0x6e, 0x76, 0x32, 0x64, 0x5f, 0x31, 0x2f, 0x42, 0x69, 0x61, 0x73,
  0x41, 0x64, 0x64, 0x2f, 0x52, 0x65, 0x61, 0x64, 0x56, 0x61, 0x72, 0x69,
  0x61, 0x62, 0x6c, 0x65, 0x4f, 0x70, 0x2f, 0x72, 0x65, 0x73, 0x6f, 0x75,
  0x72, 0x63, 0x65, 0x00, 0x04, 0x00, 0x00, 0x00, 0xff, 0xff, 0xff, 0xff,
  0x15, 0x00, 0x00, 0x00, 0x01, 0x00, 0x00, 0x00, 0x10, 0x00, 0x00, 0x00,
  0xfc, 0xd3, 0xff, 0xff, 0x00, 0x00, 0x0e, 0x00, 0x1a, 0x00, 0x08, 0x00,
  0x0c, 0x00, 0x10, 0x00, 0x07, 0x00, 0x14, 0x00, 0x0e, 0x00, 0x00, 0x00,
  0x00, 0x00, 0x00, 0x05, 0x01, 0x00, 0x00, 0x00, 0x3c, 0x00, 0x00, 0x00,
  0x30, 0x00, 0x00, 0x00, 0x14, 0x00, 0x00, 0x00, 0x00, 0x00, 0x0e, 0x00,
  0x18, 0x00, 0x17, 0x00, 0x10, 0x00, 0x0c, 0x00, 0x08, 0x00, 0x04, 0x00,
  0x0e, 0x00, 0x00, 0x00, 0x03, 0x00, 0x00, 0x00, 0x03, 0x00, 0x00, 0x00,
  0x03, 0x00, 0x00, 0x00, 0x03, 0x00, 0x00, 0x00, 0x00, 0x00, 0x00, 0x01,
  0x01, 0x00, 0x00, 0x00, 0x0b, 0x00, 0x00, 0x00, 0x01, 0x00, 0x00, 0x00,
  0x0a, 0x00, 0x00, 0x00, 0x2c, 0xff, 0xff, 0xff, 0x11, 0x00, 0x00, 0x00,
  0x00, 0x00, 0x00, 0x11, 0x01, 0x00, 0x00, 0x00, 0xcc, 0xd3, 0xff, 0xff,
  0x14, 0x00, 0x00, 0x00, 0x0c, 0x00, 0x00, 0x00, 0x20, 0x00, 0x00, 0x00,
  0x58, 0x00, 0x00, 0x00, 0x40, 0x00, 0x00, 0x00, 0x04, 0x00, 0x00, 0x00,
  0x01, 0x00, 0x00, 0x00, 0x15, 0x00, 0x00, 0x00, 0x01, 0x00, 0x00, 0x00,
  0x08, 0x00, 0x00, 0x00, 0x20, 0x00, 0x00, 0x00, 0x73, 0x65, 0x71, 0x75,
  0x65, 0x6e, 0x74, 0x69, 0x61, 0x6c, 0x2f, 0x6d, 0x61, 0x78, 0x5f, 0x70,
  0x6f, 0x6f, 0x6c, 0x69, 0x6e, 0x67, 0x32, 0x64, 0x2f, 0x4d, 0x61, 0x78,
  0x50, 0x6f, 0x6f, 0x6c, 0x00, 0x00, 0x00, 0x00, 0x04, 0x00, 0x00, 0x00,
  0xff, 0xff, 0xff, 0xff, 0x15, 0x00, 0x00, 0x00, 0x01, 0x00, 0x00, 0x00,
  0x08, 0x00, 0x00, 0x00, 0xd8, 0xd4, 0xff, 0xff, 0x00, 0x00, 0x0e, 0x00,
  0x14, 0x00, 0x00, 0x00, 0x08, 0x00, 0x0c, 0x00, 0x07, 0x00, 0x10, 0x00,
  0x0e, 0x00, 0x00, 0x00, 0x00, 0x00, 0x00, 0x01, 0x30, 0x00, 0x00, 0x00,
  0x24, 0x00, 0x00, 0x00, 0x10, 0x00, 0x00, 0x00, 0x0c, 0x00, 0x10, 0x00,
  0x00, 0x00, 0x04, 0x00, 0x08, 0x00, 0x0f, 0x00, 0x0c, 0x00, 0x00, 0x00,
  0x01, 0x00, 0x00, 0x00, 0x01, 0x00, 0x00, 0x00, 0x00, 0x00, 0x00, 0x01,
  0x01, 0x00, 0x00, 0x00, 0x0a, 0x00, 0x00, 0x00, 0x03, 0x00, 0x00, 0x00,
  0x00, 0x00, 0x00, 0x00, 0x08, 0x00, 0x00, 0x00, 0x01, 0x00, 0x00, 0x00,
  0x0c, 0x00, 0x10, 0x00, 0x0b, 0x00, 0x00, 0x00, 0x0c, 0x00, 0x04, 0x00,
  0x0c, 0x00, 0x00, 0x00, 0x03, 0x00, 0x00, 0x00, 0x00, 0x00, 0x00, 0x03,
  0x01, 0x00, 0x00, 0x00, 0xac, 0xd4, 0xff, 0xff, 0x14, 0x00, 0x00, 0x00,
  0x0b, 0x00, 0x00, 0x00, 0x20, 0x00, 0x00, 0x00, 0xb0, 0x00, 0x00, 0x00,
  0x98, 0x00, 0x00, 0x00, 0x04, 0x00, 0x00, 0x00, 0x01, 0x00, 0x00, 0x00,
  0x40, 0x00, 0x00, 0x00, 0x03, 0x00, 0x00, 0x00, 0x08, 0x00, 0x00, 0x00,
  0x7b, 0x00, 0x00, 0x00, 0x73, 0x65, 0x71, 0x75, 0x65, 0x6e, 0x74, 0x69,
  0x61, 0x6c, 0x2f, 0x63, 0x6f, 0x6e, 0x76, 0x32, 0x64, 0x2f, 0x52, 0x65,
  0x6c, 0x75, 0x3b, 0x73, 0x65, 0x71, 0x75, 0x65, 0x6e, 0x74, 0x69, 0x61,
  0x6c, 0x2f, 0x63, 0x6f, 0x6e, 0x76, 0x32, 0x64, 0x2f, 0x42, 0x69, 0x61,
  0x73, 0x41, 0x64, 0x64, 0x3b, 0x73, 0x65, 0x71, 0x75, 0x65, 0x6e, 0x74,
  0x69, 0x61, 0x6c, 0x2f, 0x63, 0x6f, 0x6e, 0x76, 0x32, 0x64, 0x2f, 0x43,
  0x6f, 0x6e, 0x76, 0x32, 0x44, 0x3b, 0x73, 0x65, 0x71, 0x75, 0x65, 0x6e,
  0x74, 0x69, 0x61, 0x6c, 0x2f, 0x63, 0x6f, 0x6e, 0x76, 0x32, 0x64, 0x2f,
  0x42, 0x69, 0x61, 0x73, 0x41, 0x64, 0x64, 0x2f, 0x52, 0x65, 0x61, 0x64,
  0x56, 0x61, 0x72, 0x69, 0x61, 0x62, 0x6c, 0x65, 0x4f, 0x70, 0x2f, 0x72,
  0x65, 0x73, 0x6f, 0x75, 0x72, 0x63, 0x65, 0x00, 0x04, 0x00, 0x00, 0x00,
  0xff, 0xff, 0xff, 0xff, 0x40, 0x00, 0x00, 0x00, 0x03, 0x00, 0x00, 0x00,
  0x08, 0x00, 0x00, 0x00, 0x00, 0xd5, 0xff, 0xff, 0x0a, 0xd6, 0xff, 0xff,
  0x04, 0x00, 0x00, 0x00, 0x00, 0x08, 0x00, 0x00, 0x90, 0x55, 0x95, 0x3d,
  0xf2, 0xa2, 0x11, 0xbf, 0x87, 0x0d, 0xcf, 0xbc, 0x7e, 0x0c, 0x69, 0x3e,
  0xe0, 0x84, 0x5c, 0x3e, 0x6a, 0x6d, 0x92, 0xbd, 0x78, 0xac, 0x5f, 0x3e,
  0x2f, 0x28, 0xb4, 0xbd, 0xf6, 0x47, 0xb4, 0xbd, 0x11, 0xe5, 0x17, 0xbf,
  0xd8, 0x89, 0x7b, 0xbd, 0xcc, 0x3c, 0x26, 0x3f, 0x54, 0x9d, 0x2c, 0x3e,
  0x60, 0x32, 0x78, 0xbe, 0x1c, 0x73, 0x00, 0x3e, 0x6b, 0x98, 0x1a, 0xbe,
  0x14, 0xb8, 0xb3, 0xbd, 0x39, 0xc1, 0xb5, 0xbe, 0x30, 0x19, 0xbe, 0x3e,
  0xdb, 0x69, 0xe2, 0xbd, 0x2d, 0x41, 0x97, 0x3d, 0x57, 0x46, 0xac, 0xbd,
  0x07, 0xcd, 0xf1, 0xbc, 0x23, 0x24, 0xe8, 0xbc, 0x0a, 0x03, 0x07, 0xbc,
  0x4d, 0x37, 0x4d, 0xbe, 0x04, 0x1d, 0x02, 0xbe, 0x31, 0x1c, 0x93, 0x3e,
  0x59, 0x2c, 0x96, 0x3e, 0xe2, 0x92, 0x0d, 0xbd, 0x1b, 0x35, 0x16, 0x3e,
  0x35, 0xf6, 0xff, 0xbd, 0x4e, 0x7d, 0xce, 0xbd, 0x86, 0x96, 0xb7, 0xbc,
  0x0e, 0x8b, 0xc4, 0x3e, 0x8f, 0x45, 0x69, 0x3e, 0xb9, 0x20, 0xee, 0x3c,
  0xca, 0x0e, 0x2a, 0xbe, 0x67, 0x79, 0x10, 0xbe, 0x50, 0x9c, 0x15, 0xbe,
  0xc6, 0xbe, 0x2f, 0xbe, 0x75, 0xb6, 0x90, 0xbd, 0x55, 0xf3, 0xaa, 0x3d,
  0xdb, 0x62, 0xd4, 0xbd, 0x0a, 0x36, 0x84, 0x3d, 0x85, 0xd0, 0x3c, 0xbe,
  0xd4, 0xcc, 0x65, 0xbd, 0xdf, 0x65, 0xb1, 0xbd, 0xdc, 0xcd, 0x2a, 0xbe,
  0x85, 0x55, 0x58, 0xbd, 0x38, 0x9b, 0x14, 0xbe, 0x36, 0x3d, 0xed, 0x3e,
  0xec, 0xec, 0xbc, 0x3c, 0xff, 0xa3, 0xfc, 0xbd, 0xdb, 0xc1, 0x11, 0x3e,
  0x18, 0x0b, 0x03, 0xbe, 0x86, 0x0e, 0x23, 0xbe, 0x50, 0xcd, 0xd5, 0xbd,
  0xab, 0x75, 0x99, 0x3e, 0x64, 0x7c, 0x81, 0x3e, 0x20, 0x18, 0xf1, 0xbd,
  0x68, 0x4e, 0x70, 0xbd, 0x5c, 0x9f, 0xa4, 0x3d, 0x13, 0xa7, 0x22, 0xbc,
  0xbf, 0xaf, 0x9b, 0x3e, 0x18, 0x42, 0xca, 0xbe, 0xee, 0xaa, 0xcf, 0xbe,
  0x8a, 0x7a, 0x0a, 0xbf, 0x5d, 0x4e, 0x48, 0x3d, 0xc8, 0xb6, 0x0f, 0xbe,
  0xb8, 0x16, 0x63, 0x3c, 0xce, 0x25, 0xea, 0xbe, 0x55, 0xcf, 0x94, 0xbe,
  0x4b, 0x51, 0x35, 0xbf, 0xde, 0x25, 0x78, 0x3e, 0x68, 0x50, 0x9b, 0xbe,
  0xf2, 0x13, 0xd1, 0x3e, 0xe9, 0x01, 0x1a, 0xbf, 0x00, 0x18, 0x16, 0x3f,
  0x55, 0x0b, 0xa5, 0xbe, 0xd1, 0x0d, 0x70, 0xbe, 0x63, 0x1a, 0x33, 0xbe,
  0x26, 0x97, 0x8f, 0x3d, 0xf0, 0x64, 0x26, 0x3e, 0x0c, 0x38, 0xdd, 0xbe,
  0x95, 0x15, 0x34, 0xbd, 0x2e, 0x4f, 0xf1, 0x3c, 0x55, 0xf7, 0x0b, 0x3d,
  0x49, 0x6c, 0x8c, 0xbd, 0x69, 0xa5, 0x30, 0x3e, 0x9b, 0xf5, 0x0a, 0xbe,
  0xbe, 0x85, 0x38, 0x3e, 0x2b, 0xdb, 0x7f, 0xbe, 0x0c, 0x7c, 0xb5, 0x3d,
  0x6f, 0x04, 0x6f, 0x3e, 0x41, 0x8a, 0xc0, 0x3c, 0x9a, 0x4d, 0x61, 0xbe,
  0x96, 0x32, 0x0d, 0xbe, 0x7b, 0x92, 0x1c, 0xbd, 0x39, 0x62, 0x9b, 0xbe,
  0x12, 0xd7, 0x29, 0xbe, 0xfc, 0xae, 0xec, 0xbd, 0x42, 0x50, 0x26, 0xbe,
  0x36, 0x38, 0x32, 0xbe, 0xa5, 0x7b, 0x0a, 0x3e, 0x27, 0xc3, 0x05, 0xbd,
  0xdf, 0xdc, 0x19, 0xbe, 0x67, 0xc7, 0x21, 0x3c, 0x83, 0x28, 0xd0, 0xbd,
  0x0b, 0x10, 0xb0, 0x3c, 0x8d, 0xfa, 0x4d, 0xbd, 0x0c, 0xa4, 0x8f, 0xbd,
  0x45, 0xfc, 0x10, 0x3e, 0x12, 0x4b, 0x36, 0xbe, 0x3f, 0x0a, 0x61, 0xbe,
  0x35, 0x31, 0xca, 0xbd, 0x5d, 0xfa, 0xcb, 0xbd, 0xc2, 0x4e, 0x4a, 0xbd,
  0x48, 0x20, 0xd9, 0xbd, 0x7e, 0xb6, 0x93, 0xbd, 0x02, 0xca, 0x81, 0x3e,
  0xb4, 0xae, 0x10, 0x3d, 0xda, 0xd4, 0x7f, 0xbc, 0xa3, 0x1f, 0x94, 0x3e,
  0x9f, 0xf5, 0x0d, 0xbd, 0x21, 0xf8, 0xa6, 0xbc, 0x25, 0xcb, 0x3d, 0xbc,
  0xac, 0x4a, 0xea, 0x3d, 0xff, 0x22, 0x28, 0xbe, 0x07, 0xef, 0xe0, 0xbd,
  0xf2, 0xbc, 0xd6, 0xbd, 0xc3, 0x96, 0x0f, 0x3c, 0x7e, 0xf7, 0x91, 0xbd,
  0x9e, 0x15, 0xba, 0xbe, 0xd7, 0x3a, 0xaf, 0xbe, 0xa7, 0x74, 0x18, 0xbf,
  0xeb, 0x2d, 0x75, 0xbe, 0x12, 0xf2, 0x4b, 0xbd, 0x08, 0xbc, 0xa3, 0x3e,
  0xf7, 0xbb, 0xcd, 0xbd, 0x8a, 0xa2, 0x78, 0x3e, 0x08, 0x85, 0x3c, 0xbf,
  0x0d, 0x54, 0x18, 0xbf, 0xf2, 0x9d, 0x56, 0xbe, 0x8f, 0xec, 0x17, 0xbe,
  0xc2, 0x98, 0x63, 0xbd, 0x63, 0x7b, 0x14, 0xbe, 0x1f, 0xa0, 0x2a, 0xbe,
  0x10, 0x8e, 0x18, 0x3d, 0xfc, 0xc8, 0x8a, 0xbe, 0x0c, 0xac, 0xdd, 0xbe,
  0x55, 0xae, 0x82, 0x3d, 0xd3, 0x65, 0x5a, 0x3e, 0x7f, 0xc4, 0x40, 0x3e,
  0x99, 0x5a, 0x7f, 0xbe, 0x62, 0xc9, 0x63, 0x3e, 0x93, 0x67, 0x27, 0x3e,
  0x82, 0x74, 0x10, 0xbe, 0x59, 0x1c, 0x8b, 0xbe, 0x92, 0x0f, 0xcb, 0x3d,
  0x66, 0xcd, 0xaf, 0xbd, 0x9e, 0x87, 0x25, 0xbd, 0xf3, 0xce, 0xf3, 0xbd,
  0x50, 0xbf, 0xa6, 0xbe, 0x18, 0x03, 0xbd, 0x3e, 0x74, 0xe5, 0xe6, 0xbd,
  0x6d, 0x5b, 0x37, 0xbe, 0x14, 0x28, 0xa3, 0x3d, 0xf2, 0xbf, 0x51, 0xbd,
  0xd1, 0x90, 0x87, 0x3d, 0xd3, 0x10, 0x55, 0x3e, 0x95, 0x8d, 0x91, 0xbd,
  0x5a, 0x18, 0x07, 0x3d, 0x8a, 0xdc, 0xa9, 0x3d, 0xb5, 0x54, 0x70, 0xbe,
  0x09, 0x7c, 0x4f, 0x3d, 0x4f, 0x71, 0xfa, 0xbd, 0xd1, 0x7f, 0xa4, 0xbc,
  0x97, 0x4d, 0xcb, 0x3d, 0x56, 0x64, 0x08, 0x3e, 0xf5, 0x3d, 0x85, 0xbe,
  0x60, 0x43, 0x28, 0x3d, 0xec, 0x64, 0x87, 0xbe, 0xe0, 0xb8, 0xfb, 0x3c,
  0x6b, 0x55, 0xa9, 0x3b, 0x3b, 0x57, 0x22, 0xbe, 0xac, 0xa7, 0x88, 0xbd,
  0xe7, 0xfa, 0xcc, 0xbe, 0x27, 0x2a, 0xa1, 0x3d, 0xf7, 0xfd, 0xfd, 0xbe,
  0xc9, 0x17, 0x2d, 0xbf, 0x38, 0x21, 0xe0, 0xbe, 0x19, 0x80, 0xa5, 0xbd,
  0x70, 0x4d, 0x03, 0xbe, 0x97, 0x6a, 0xcc, 0xbe, 0xe0, 0x08, 0x76, 0xbe,
  0xdc, 0x9a, 0xa9, 0x3d, 0xbc, 0x09, 0x22, 0xbd, 0xca, 0xc7, 0x8a, 0x3c,
  0xfb, 0x5b, 0xf3, 0xbd, 0x3d, 0x46, 0xa5, 0xbd, 0xa6, 0x4a, 0x20, 0xbe,
  0x24, 0x07, 0x2c, 0xbe, 0x6b, 0xd4, 0x1b, 0xbe, 0xd0, 0x38, 0x14, 0xbe,
  0xb5, 0xc3, 0x89, 0xbd, 0xcd, 0x9c, 0x16, 0xbe, 0x6c, 0x41, 0xcb, 0xbd,
  0x32, 0xb7, 0x55, 0xbc, 0x15, 0xee, 0xd9, 0xbd, 0xca, 0xa6, 0x22, 0x3e,
  0x66, 0x27, 0xa3, 0x3e, 0xbc, 0x12, 0x67, 0xbe, 0x55, 0x8f, 0x08, 0xbd,
  0xe3, 0x0d, 0x3e, 0xbe, 0xf2, 0x27, 0x07, 0xbe, 0x3d, 0x5f, 0xfb, 0x3d,
  0xcb, 0x40, 0x49, 0x3d, 0xcb, 0xdd, 0xac, 0x3d, 0x76, 0xee, 0x97, 0x3e,
  0xf2, 0xf9, 0x6a, 0xbe, 0xf7, 0x20, 0xc2, 0xbc, 0x32, 0x48, 0x5a, 0xbd,
  0x1b, 0xb4, 0xe8, 0x3e, 0xe6, 0x81, 0xb7, 0xbd, 0xa9, 0x8d, 0x45, 0x3e,
  0x6d, 0x32, 0x35, 0x3d, 0x5a, 0xe0, 0x4e, 0xbd, 0xcf, 0x79, 0x97, 0xbb,
  0x49, 0xbb, 0x53, 0xbc, 0xab, 0x67, 0x41, 0x3f, 0xe4, 0x7d, 0xe6, 0x3c,
  0x27, 0x70, 0x30, 0xbe, 0x3b, 0x13, 0xc3, 0xbd, 0x24, 0x30, 0xb3, 0xbd,
  0xef, 0x22, 0x9b, 0xbe, 0x6a, 0x3b, 0xc0, 0xbd, 0xc2, 0x3a, 0xbe, 0xbd,
  0x63, 0xac, 0xba, 0xbd, 0x4f, 0xd0, 0xf7, 0xbd, 0x7a, 0xbd, 0xb9, 0xbd,
  0x39, 0xeb, 0xcf, 0xbd, 0x0d, 0x32, 0xa3, 0x3c, 0x1c, 0x88, 0xc7, 0xbd,
  0x2e, 0x72, 0x1c, 0x3e, 0xe0, 0x85, 0xa7, 0xbd, 0x56, 0x1d, 0x19, 0xbd,
  0xef, 0xe6, 0xeb, 0xbd, 0x34, 0xf8, 0x2c, 0x3e, 0x75, 0xb7, 0x29, 0xbe,
  0x06, 0x5d, 0x97, 0x3c, 0xb0, 0xcc, 0x09, 0xbc, 0x2e, 0x1d, 0x09, 0x3e,
  0x88, 0x84, 0xaa, 0xbd, 0x64, 0x29, 0xd4, 0xbd, 0x63, 0xf1, 0x24, 0xbe,
  0x31, 0xb8, 0x8f, 0x3e, 0xd8, 0xa3, 0xa4, 0x3d, 0x97, 0x70, 0xa6, 0xbc,
  0xf6, 0xa5, 0xf5, 0x3d, 0x17, 0xc6, 0x30, 0x3e, 0xf4, 0x5d, 0xdc, 0xbe,
  0xc4, 0xc8, 0xac, 0xbe, 0x64, 0xc8, 0xda, 0x3d, 0xaf, 0x6b, 0x08, 0xbd,
  0x1e, 0x36, 0x45, 0x3e, 0x9a, 0x04, 0x30, 0x3d, 0x21, 0x3c, 0x14, 0x3e,
  0x21, 0x85, 0xf3, 0x3c, 0x1b, 0x5c, 0x23, 0xbe, 0x1c, 0x5c, 0x8d, 0xbf,
  0xdd, 0xd8, 0xfd, 0xbe, 0x1f, 0xf1, 0x8a, 0xbe, 0x39, 0xa1, 0xb5, 0xbd,
  0x92, 0x7a, 0x7a, 0x3e, 0x13, 0xfe, 0x8f, 0xbc, 0xe6, 0xf0, 0xa4, 0xbe,
  0x9a, 0x49, 0x8e, 0x3e, 0xa8, 0x44, 0x13, 0xbf, 0x4e, 0x07, 0x16, 0xbf,
  0xd2, 0xd5, 0xdc, 0xbe, 0xf6, 0xb9, 0x71, 0xbe, 0x2d, 0x45, 0x78, 0xbc,
  0xa5, 0x69, 0xa0, 0x3e, 0x33, 0x83, 0x45, 0xbf, 0xb3, 0x79, 0x5f, 0x3e,
  0x33, 0xa6, 0x23, 0x3e, 0xae, 0x11, 0xfb, 0xbd, 0xa2, 0x9b, 0x1c, 0x3c,
  0xfe, 0x4b, 0x3c, 0xbf, 0xa7, 0xeb, 0xd7, 0xbe, 0xbe, 0x57, 0x04, 0xbf,
  0x32, 0x8b, 0x0e, 0x3e, 0x7f, 0x4b, 0xac, 0xbe, 0xb0, 0x9b, 0x37, 0x3f,
  0x6d, 0x3c, 0xc3, 0xbe, 0x75, 0x75, 0xe2, 0xbe, 0x48, 0x83, 0x38, 0xbf,
  0x10, 0x4d, 0x9d, 0x3e, 0x5d, 0xc3, 0xdb, 0x3d, 0xe9, 0x9d, 0x30, 0x3e,
  0x1c, 0x23, 0x34, 0xbf, 0x8f, 0x80, 0xb1, 0xbe, 0xe5, 0x51, 0x19, 0xbe,
  0x72, 0x23, 0xe4, 0xbd, 0x8d, 0x5c, 0xe0, 0xbc, 0x46, 0xb9, 0xb7, 0x3e,
  0x22, 0x69, 0xeb, 0x3d, 0x5f, 0xba, 0xc1, 0xbe, 0x62, 0x88, 0x23, 0x3c,
  0xb1, 0xee, 0x5c, 0x3e, 0xd2, 0x14, 0xc4, 0x3c, 0xeb, 0x1a, 0x2a, 0xbc,
  0x41, 0x94, 0xc3, 0x3d, 0x44, 0xd0, 0x35, 0xbe, 0x17, 0x70, 0x76, 0xbc,
  0xde, 0xb7, 0x32, 0xbe, 0xbb, 0x76, 0x8c, 0x3d, 0xa6, 0x4b, 0x29, 0x3e,
  0x51, 0xce, 0xd9, 0x3d, 0xbd, 0x2a, 0xdf, 0x3c, 0x16, 0xef, 0xa9, 0x3d,
  0xc0, 0xbc, 0x0d, 0x3c, 0xcc, 0xf2, 0x47, 0xbb, 0x85, 0x29, 0x3b, 0xbd,
  0xb5, 0x4b, 0x5b, 0x3d, 0x57, 0x1b, 0x65, 0xbd, 0x4f, 0x24, 0xa0, 0xbb,
  0x7b, 0x9c, 0x56, 0x3e, 0x16, 0x5e, 0x37, 0x39, 0xf4, 0x97, 0x97, 0x3d,
  0x27, 0x31, 0xf9, 0x3c, 0x97, 0xa5, 0xa5, 0xbd, 0x7b, 0xf8, 0xba, 0xbc,
  0x8c, 0x1f, 0x76, 0x3c, 0xaf, 0xad, 0x0c, 0x3e, 0xbb, 0xd8, 0xc5, 0xbd,
  0x0b, 0xb1, 0x31, 0xbd, 0xfb, 0xaf, 0x23, 0x3e, 0xec, 0xf0, 0xf6, 0x3c,
  0xd4, 0x62, 0x65, 0x3e, 0x45, 0xc5, 0xe4, 0xbc, 0xfc, 0x10, 0x00, 0x3d,
  0x40, 0xe8, 0x3c, 0x3b, 0xfb, 0xdf, 0x1f, 0xbe, 0xf4, 0x6e, 0xaf, 0xbd,
  0xea, 0x18, 0x79, 0x3d, 0x6c, 0x2f, 0x61, 0xbe, 0x6e, 0x5b, 0x95, 0xbc,
  0x1d, 0x9e, 0x90, 0xbd, 0xfa, 0x31, 0xa3, 0xba, 0x0c, 0xd6, 0xba, 0xbd,
  0x45, 0x77, 0xc0, 0xbd, 0xb3, 0x35, 0xe7, 0xbc, 0x99, 0x09, 0x8c, 0xbe,
  0x24, 0x25, 0x09, 0xbf, 0x5d, 0xdc, 0x1d, 0x3e, 0xd4, 0x37, 0xd8, 0xbd,
  0x04, 0xa0, 0x8d, 0xbd, 0x1f, 0x98, 0xc4, 0xbc, 0x5f, 0xdd, 0xb9, 0xbd,
  0x5d, 0x3d, 0x92, 0xbd, 0x7d, 0x23, 0xad, 0xbe, 0x85, 0x9e, 0xe0, 0xbc,
  0xe4, 0x0c, 0xfd, 0x3d, 0x8c, 0xab, 0x36, 0xbe, 0xbe, 0x93, 0xb2, 0x3e,
  0xd3, 0xc1, 0x8d, 0xbc, 0xbe, 0xb8, 0xa9, 0xbc, 0x1c, 0x09, 0xb0, 0x3d,
  0xf6, 0x60, 0x6b, 0x3d, 0x4e, 0x56, 0xda, 0x3d, 0xa7, 0x9e, 0x14, 0x3f,
  0x75, 0xa8, 0xf5, 0xbd, 0x88, 0x69, 0xdd, 0xbd, 0xa5, 0x7c, 0x11, 0x3e,
  0x27, 0x84, 0xe1, 0xbb, 0x34, 0xce, 0x65, 0x3d, 0xf7, 0xfa, 0xc0, 0x3c,
  0x2f, 0xa8, 0x45, 0xbe, 0x74, 0xf0, 0x46, 0xbe, 0xe0, 0x74, 0x11, 0xbe,
  0xfd, 0x41, 0x43, 0xbf, 0x90, 0xce, 0xce, 0xbd, 0xe9, 0x00, 0x02, 0xbe,
  0x73, 0xf2, 0x23, 0xbe, 0x68, 0xb5, 0x51, 0x3c, 0x18, 0x59, 0x91, 0xbe,
  0xf3, 0x6b, 0xa1, 0xbe, 0xa5, 0x85, 0xb0, 0xbd, 0x4e, 0x59, 0x95, 0xbe,
  0x7e, 0xd6, 0x6f, 0x3e, 0x4c, 0x67, 0x07, 0xbd, 0x40, 0xa6, 0x87, 0x3d,
  0x2f, 0xe7, 0x33, 0xbe, 0xe3, 0xda, 0x8e, 0xbe, 0xae, 0x6a, 0xa3, 0xbe,
  0x9c, 0x1d, 0x07, 0x3b, 0x11, 0xbd, 0x8e, 0xbd, 0x84, 0xe4, 0x8b, 0xbe,
  0x36, 0x7b, 0xaf, 0xbd, 0x1b, 0x08, 0x15, 0x3d, 0xa6, 0x5c, 0xb0, 0xbc,
  0x08, 0xc7, 0xf9, 0xbe, 0x42, 0xe9, 0xd6, 0xbe, 0x4d, 0x19, 0x4e, 0xbd,
  0x43, 0x34, 0x68, 0x3d, 0xe2, 0x19, 0x26, 0xbe, 0x46, 0x8e, 0x39, 0x3e,
  0xc8, 0x46, 0x1a, 0x3e, 0xa2, 0xd3, 0xe9, 0x3d, 0x18, 0xfa, 0xb6, 0xbe,
  0x7e, 0x0e, 0xb0, 0xbe, 0x08, 0x51, 0x45, 0x3d, 0xdb, 0x09, 0xff, 0x3c,
  0x22, 0x34, 0x8b, 0xbd, 0xe8, 0x9e, 0xa7, 0xbe, 0xd0, 0xc9, 0x82, 0x3d,
  0xff, 0x00, 0x37, 0xbe, 0xb7, 0xc3, 0x08, 0xbf, 0xd6, 0x5f, 0x4f, 0xbe,
  0x77, 0x1b, 0x4c, 0xbf, 0x41, 0x02, 0x18, 0xbf, 0x2d, 0x9f, 0xad, 0xbe,
  0x5f, 0x56, 0x94, 0x3d, 0x2d, 0x62, 0x39, 0x3d, 0x67, 0x5f, 0x28, 0xbd,
  0xf0, 0x74, 0x7e, 0x3e, 0x52, 0xa4, 0xd8, 0x3c, 0x05, 0x32, 0x92, 0xbf,
  0x15, 0x85, 0x36, 0xbd, 0x5a, 0xcc, 0x2c, 0x3e, 0xab, 0x66, 0xb2, 0xbd,
  0x58, 0x45, 0xff, 0xbb, 0xc0, 0x58, 0x53, 0x3b, 0x9e, 0x74, 0x80, 0x3e,
  0x2a, 0x95, 0xae, 0x3e, 0x33, 0x69, 0xf1, 0xbe, 0x43, 0x7a, 0x14, 0xbf,
  0x83, 0x2f, 0x2e, 0xbf, 0xc6, 0x2b, 0xd0, 0xbd, 0xb0, 0x8e, 0x34, 0x3e,
  0x0f, 0x10, 0x9a, 0x3d, 0x86, 0x01, 0x62, 0x3e, 0x81, 0x7a, 0x4f, 0x3d,
  0xcc, 0xef, 0x94, 0xbe, 0xb2, 0x09, 0x13, 0xbf, 0x26, 0x63, 0x96, 0xbe,
  0xf5, 0x68, 0x98, 0xbd, 0x88, 0x6b, 0xdf, 0xbd, 0x55, 0x95, 0x31, 0xbe,
  0xc7, 0x89, 0x6e, 0xbe, 0x7a, 0x64, 0xa9, 0xbe, 0x62, 0x14, 0xaa, 0xbd,
  0x0b, 0xe5, 0xfd, 0xbd, 0x77, 0x61, 0x0e, 0xbe, 0x68, 0x28, 0x2e, 0xbd,
  0x96, 0xb3, 0xd8, 0xbd, 0x57, 0x46, 0x40, 0xbe, 0x11, 0x0d, 0x10, 0xbe,
  0xe7, 0xfd, 0x9f, 0xbe, 0x89, 0x6b, 0xc0, 0xbd, 0x49, 0x03, 0xc6, 0xbd,
  0xf5, 0xe4, 0xef, 0xbd, 0xa4, 0xb6, 0xf5, 0x3c, 0xe3, 0xde, 0xae, 0xbd,
  0x46, 0x60, 0x97, 0x3d, 0xfd, 0x9d, 0x56, 0x3e, 0x57, 0x4e, 0x0a, 0x3f,
  0x08, 0x1b, 0xbb, 0xbd, 0xf9, 0x7a, 0x4c, 0xbd, 0x84, 0xe0, 0x08, 0x3f,
  0xab, 0xbe, 0x2c, 0xbd, 0xe7, 0x5b, 0x2a, 0x3e, 0x3c, 0x8c, 0xe8, 0x3d,
  0x88, 0xe4, 0x7d, 0xbc, 0x36, 0x5e, 0x80, 0x3e, 0x34, 0x67, 0x6f, 0xbd,
  0x89, 0xcd, 0x99, 0x3c, 0xde, 0x2a, 0xb1, 0xbc, 0xca, 0xf3, 0x1c, 0xbe,
  0xac, 0xb2, 0x2c, 0xbe, 0xd7, 0xec, 0xc7, 0xbc, 0xfc, 0x36, 0x4e, 0xbe,
  0x55, 0xa1, 0x60, 0xbe, 0x1a, 0x99, 0xd5, 0xbd, 0xe0, 0x6e, 0x17, 0xbe,
  0x51, 0xf1, 0x6a, 0xbd, 0x41, 0x31, 0x4f, 0xbd, 0x71, 0x45, 0x66, 0xbc,
  0x5c, 0xb5, 0xb7, 0xbd, 0x50, 0x68, 0x43, 0x3e, 0xeb, 0x0a, 0x18, 0xbe,
  0x2c, 0x67, 0x26, 0xbe, 0x4a, 0xc2, 0xce, 0xbd, 0x82, 0x81, 0x8d, 0x3c,
  0xf4, 0x56, 0x9e, 0xbe, 0xda, 0x87, 0x1d, 0xbe, 0x05, 0x68, 0x87, 0xbe,
  0x65, 0x37, 0x85, 0xbe, 0x3f, 0x69, 0x6a, 0xbc, 0xf0, 0xfe, 0x85, 0xbe,
  0xc0, 0xe4, 0x72, 0xbd, 0xca, 0xad, 0x97, 0xbe, 0x41, 0x16, 0x8a, 0xbd,
  0x5c, 0xb5, 0xc3, 0xbd, 0x3b, 0x14, 0xd6, 0xbd, 0x2b, 0x6b, 0xd2, 0x3d,
  0x48, 0x94, 0x6b, 0xbe, 0xf6, 0xf9, 0x10, 0xbe, 0x5a, 0xb7, 0xfb, 0xbd,
  0xce, 0x3b, 0xbb, 0xbd, 0xe2, 0xdd, 0xff, 0xff, 0x10, 0x00, 0x00, 0x00,
  0x0a, 0x00, 0x00, 0x00, 0x1c, 0x00, 0x00, 0x00, 0x38, 0x00, 0x00, 0x00,
  0x04, 0x00, 0x00, 0x00, 0x10, 0x00, 0x00, 0x00, 0x04, 0x00, 0x00, 0x00,
  0x01, 0x00, 0x00, 0x00, 0x08, 0x00, 0x00, 0x00, 0x1a, 0x00, 0x00, 0x00,
  0x73, 0x65, 0x71, 0x75, 0x65, 0x6e, 0x74, 0x69, 0x61, 0x6c, 0x2f, 0x63,
  0x6f, 0x6e, 0x76, 0x32, 0x64, 0x5f, 0x31, 0x2f, 0x43, 0x6f, 0x6e, 0x76,
  0x32, 0x44, 0x00, 0x00, 0x58, 0xdd, 0xff, 0xff, 0x62, 0xde, 0xff, 0xff,
  0x04, 0x00, 0x00, 0x00, 0x80, 0x01, 0x00, 0x00, 0x4b, 0xd4, 0x30, 0xbe,
  0xd9, 0x29, 0x0b, 0x3e, 0xcd, 0x6e, 0x54, 0xbe, 0x08, 0x35, 0xde, 0x3d,
  0xe4, 0xd6, 0xa5, 0x3d, 0xea, 0x71, 0x40, 0xbe, 0xc2, 0x6f, 0xea, 0xbd,
  0x37, 0x57, 0x3c, 0x3d, 0xd7, 0x5d, 0xbb, 0xbd, 0x04, 0x94, 0x48, 0x3e,
  0xf7, 0xc4, 0x8e, 0xbd, 0x49, 0x20, 0xec, 0xbc, 0x74, 0x49, 0xf1, 0xbd,
  0xc6, 0x00, 0xdf, 0xbd, 0x50, 0x22, 0x61, 0x3d, 0xff, 0x44, 0x86, 0xbd,
  0x05, 0x35, 0x80, 0xbd, 0x9f, 0x28, 0xc9, 0x3d, 0xf6, 0xf6, 0x78, 0xbd,
  0xb1, 0xfa, 0x85, 0x3c, 0x7a, 0xaf, 0xaf, 0x3b, 0x32, 0x95, 0xc2, 0xbd,
  0x0b, 0x69, 0x20, 0x3c, 0x3d, 0xdb, 0xc2, 0x3d, 0x79, 0x2a, 0x9c, 0x3e,
  0x6d, 0xe8, 0x3c, 0x3e, 0x1b, 0x3c, 0x1b, 0x3e, 0x66, 0x26, 0xa9, 0x3b,
  0x1b, 0x4e, 0x84, 0x3e, 0x2b, 0x28, 0x68, 0xbe, 0xbf, 0xca, 0x0f, 0xbd,
  0x47, 0x62, 0x23, 0xbe, 0xbb, 0xa6, 0x1d, 0x3e, 0x89, 0x08, 0x45, 0xbe,
  0x96, 0x0b, 0x6d, 0xbe, 0x27, 0x7c, 0x93, 0xbd, 0x46, 0x21, 0x3d, 0xbe,
  0x3c, 0xe9, 0xc6, 0x3e, 0x13, 0x80, 0x15, 0x3e, 0x01, 0x0e, 0xb5, 0x3e,
  0xc1, 0x5a, 0x63, 0xbd, 0x9b, 0x3e, 0x9f, 0x3e, 0x8f, 0xee, 0x1b, 0xbd,
  0x7c, 0x53, 0x38, 0xbe, 0x8e, 0x26, 0xe5, 0xbe, 0xfe, 0x44, 0x53, 0xbd,
  0xee, 0x36, 0x55, 0xbe, 0x5e, 0x03, 0x2f, 0xbe, 0xa8, 0xdd, 0x3d, 0xbe,
  0xb7, 0x23, 0x0b, 0xbd, 0xd6, 0x50, 0x36, 0xbd, 0x74, 0x3b, 0x97, 0xbe,
  0x0f, 0x6b, 0x9d, 0xbe, 0xaf, 0x11, 0x8d, 0xbe, 0x7f, 0xbf, 0x9a, 0x3e,
  0xb4, 0x8d, 0x09, 0x3e, 0xe0, 0x28, 0x0b, 0x3e, 0x25, 0xbe, 0x9e, 0x3e,
  0x94, 0xea, 0x2d, 0x3e, 0x46, 0x75, 0xb8, 0x3d, 0xdb, 0xa2, 0x84, 0xbe,
  0x72, 0x11, 0x85, 0xbe, 0xb6, 0x71, 0xb5, 0x3d, 0x4f, 0x80, 0x91, 0x3d,
  0x87, 0x98, 0x83, 0xbe, 0x67, 0x2f, 0x15, 0x3e, 0xd3, 0x6f, 0x79, 0xbd,
  0x5f, 0xa5, 0xd3, 0x3d, 0x1b, 0x3f, 0xb7, 0xbd, 0xe4, 0x86, 0x6d, 0xbd,
  0xe3, 0x58, 0xbe, 0xbd, 0x60, 0xa1, 0x02, 0xbe, 0x23, 0xd6, 0x94, 0xbe,
  0x14, 0x16, 0x7f, 0xbd, 0xd9, 0x80, 0x06, 0x3e, 0x49, 0x25, 0xf2, 0xbe,
  0xb4, 0x0f, 0xcc, 0xbe, 0xed, 0x29, 0x44, 0xbd, 0x5e, 0xea, 0x6b, 0x3e,
  0xf2, 0x07, 0x6a, 0x3d, 0x82, 0x6b, 0x0a, 0xbe, 0xde, 0x22, 0xa5, 0x3e,
  0x0a, 0x17, 0x4b, 0x3e, 0x4e, 0x1e, 0x5d, 0xba, 0x81, 0xe3, 0x94, 0x3e,
  0x3a, 0x6b, 0xaf, 0xbd, 0x5c, 0xc8, 0xae, 0xbe, 0x85, 0x1b, 0x69, 0x3d,
  0x1e, 0x1d, 0x8d, 0xbe, 0x9e, 0x8f, 0x41, 0x3d, 0xf8, 0xdd, 0xc6, 0xbe,
  0xe4, 0x7c, 0x0d, 0xbd, 0xd7, 0x8e, 0xf0, 0x3d, 0xa3, 0xe0, 0x52, 0xbe,
  0x0c, 0x96, 0x8a, 0x3d, 0xb5, 0x3c, 0x3b, 0x3e, 0xba, 0xdf, 0xff, 0xff,
  0x10, 0x00, 0x00, 0x00, 0x09, 0x00, 0x00, 0x00, 0x1c, 0x00, 0x00, 0x00,
  0x38, 0x00, 0x00, 0x00, 0x04, 0x00, 0x00, 0x00, 0x08, 0x00, 0x00, 0x00,
  0x04, 0x00, 0x00, 0x00, 0x03, 0x00, 0x00, 0x00, 0x01, 0x00, 0x00, 0x00,
  0x18, 0x00, 0x00, 0x00, 0x73, 0x65, 0x71, 0x75, 0x65, 0x6e, 0x74, 0x69,
  0x61, 0x6c, 0x2f, 0x63, 0x6f, 0x6e, 0x76, 0x32, 0x64, 0x2f, 0x43, 0x6f,
  0x6e, 0x76, 0x32, 0x44, 0x00, 0x00, 0x00, 0x00, 0x30, 0xdf, 0xff, 0xff,
  0x3a, 0xe0, 0xff, 0xff, 0x04, 0x00, 0x00, 0x00, 0x00, 0x01, 0x00, 0x00,
  0xee, 0x0a, 0x11, 0xbe, 0x96, 0xd0, 0x41, 0x3e, 0x45, 0x03, 0xb4, 0xbc,
  0x68, 0x87, 0x17, 0xbe, 0xeb, 0x27, 0x8a, 0x3e, 0x79, 0xe8, 0x98, 0xbc,
  0x6e, 0x95, 0x14, 0x3e, 0x41, 0x37, 0x41, 0x3e, 0x5e, 0xc2, 0x64, 0x3e,
  0xd5, 0xea, 0x79, 0x3d, 0x8a, 0xff, 0xb2, 0x3d, 0x32, 0xcb, 0x3b, 0x3e,
  0xa9, 0x49, 0x9b, 0x3d, 0xac, 0x46, 0xe1, 0xbd, 0x25, 0xd4, 0xcc, 0x3d,
  0x9d, 0x07, 0x2f, 0x3d, 0xcd, 0x42, 0x10, 0x3e, 0x55, 0x34, 0x76, 0x3e,
  0x1e, 0x33, 0x9a, 0xbd, 0x75, 0x37, 0x42, 0xbe, 0x16, 0xc7, 0x05, 0xbf,
  0x5c, 0xc1, 0x64, 0x3c, 0x6b, 0xaf, 0xd7, 0x3d, 0xa7, 0x9b, 0x11, 0x3e,
  0xd7, 0x8d, 0x61, 0x3e, 0x97, 0x31, 0xde, 0x3d, 0xee, 0x78, 0xfb, 0x3d,
  0x14, 0xc5, 0x07, 0x3e, 0xac, 0xaf, 0x2e, 0xbd, 0x1f, 0x6b, 0xd9, 0xbb,
  0x3b, 0x5b, 0x43, 0x3e, 0x26, 0x8f, 0x71, 0x3e, 0x2c, 0x80, 0x84, 0x3e,
  0x0a, 0x0a, 0x3c, 0x3e, 0xab, 0x29, 0xf0, 0xbd, 0xfe, 0x85, 0xa5, 0x3d,
  0xc9, 0x45, 0xbf, 0xbe, 0xa2, 0xa4, 0x3c, 0x3e, 0x53, 0x60, 0xff, 0x3d,
  0xc7, 0x06, 0x59, 0x3e, 0xd5, 0xe3, 0x33, 0x3e, 0x35, 0x36, 0x0e, 0x3d,
  0x27, 0x8a, 0xbe, 0x3d, 0x7b, 0x42, 0xca, 0xbc, 0x2b, 0x6d, 0x9f, 0x3d,
  0x73, 0xf7, 0xf0, 0xbe, 0xf0, 0x6d, 0x75, 0x3e, 0xe8, 0xcb, 0x6c, 0x3e,
  0x73, 0xf1, 0x06, 0xbe, 0xd7, 0x1b, 0x3c, 0x3e, 0x99, 0x9f, 0x92, 0xbd,
  0x4a, 0x69, 0xf0, 0x3c, 0x69, 0x61, 0x80, 0xbe, 0x2a, 0xb7, 0xd9, 0x3d,
  0x71, 0xcd, 0x67, 0x3d, 0xb0, 0x55, 0x2c, 0x3e, 0x87, 0xb7, 0x8c, 0x3e,
  0xb6, 0xad, 0xf9, 0x3c, 0xa8, 0x8f, 0x94, 0x3c, 0x88, 0x32, 0xf4, 0x3d,
  0x33, 0x73, 0x37, 0x3e, 0x08, 0xb0, 0xe7, 0xbd, 0x91, 0xe6, 0x28, 0x3e,
  0xde, 0x45, 0xa0, 0x3e, 0x12, 0xe1, 0xff, 0xff, 0x10, 0x00, 0x00, 0x00,
  0x08, 0x00, 0x00, 0x00, 0x14, 0x00, 0x00, 0x00, 0x30, 0x00, 0x00, 0x00,
  0x02, 0x00, 0x00, 0x00, 0x04, 0x00, 0x00, 0x00, 0x10, 0x00, 0x00, 0x00,
  0x19, 0x00, 0x00, 0x00, 0x73, 0x65, 0x71, 0x75, 0x65, 0x6e, 0x74, 0x69,
  0x61, 0x6c, 0x2f, 0x64, 0x65, 0x6e, 0x73, 0x65, 0x5f, 0x31, 0x2f, 0x4d,
  0x61, 0x74, 0x4d, 0x75, 0x6c, 0x00, 0x00, 0x00, 0x80, 0xe0, 0xff, 0xff,
  0x8a, 0xe1, 0xff, 0xff, 0x04, 0x00, 0x00, 0x00, 0x00, 0x1c, 0x00, 0x00,
  0x2d, 0xdc, 0xdd, 0xbd, 0x3c, 0xb3, 0xc5, 0x3c, 0xde, 0xaf, 0x64, 0x3c,
  0x01, 0xc8, 0x7a, 0xbe, 0x92, 0x5d, 0x6a, 0xbd, 0x47, 0x0a, 0xb5, 0x3d,
  0xb5, 0x42, 0x14, 0xbe, 0x87, 0x43, 0xdd, 0xbc, 0xbd, 0x52, 0x78, 0xbe,
  0xdb, 0xb6, 0xa9, 0xbc, 0x72, 0x9b, 0x81, 0xbe, 0x7e, 0x95, 0xcd, 0xbd,
  0x3d, 0xd0, 0x07, 0xbe, 0x43, 0x54, 0x08, 0x3d, 0x5a, 0x10, 0x6c, 0xbe,
  0x30, 0xd0, 0xae, 0x3b, 0xae, 0x01, 0xc4, 0xbc, 0xa2, 0x5e, 0x01, 0x3d,
  0x13, 0x2f, 0xd2, 0x3d, 0xb4, 0x27, 0x3a, 0xbe, 0x9b, 0x1b, 0x91, 0x3d,
  0x58, 0xc8, 0x51, 0x3d, 0xd8, 0x6e, 0x10, 0xbe, 0xf2, 0xb4, 0x9f, 0x3c,
  0x92, 0x62, 0xb8, 0xbd, 0xf3, 0xc8, 0x44, 0xbe, 0xd3, 0x16, 0x22, 0xbe,
  0x55, 0x7c, 0xee, 0xbd, 0xc6, 0xef, 0x2f, 0x3e, 0x80, 0xb4, 0xcd, 0xbd,
  0xa4, 0x38, 0xda, 0x3d, 0x72, 0x9a, 0xb3, 0xbd, 0x1c, 0x87, 0x8d, 0xbe,
  0xaf, 0x55, 0x51, 0xbe, 0x30, 0x22, 0xe1, 0x3c, 0x7e, 0x9a, 0x51, 0xbe,
  0xb4, 0x27, 0x0c, 0x3d, 0xc4, 0x73, 0x29, 0xbe, 0xe9, 0x32, 0xdd, 0x3d,
  0x86, 0xc7, 0x19, 0xbe, 0x28, 0xa5, 0xb8, 0xbd, 0x3c, 0x97, 0x1c, 0xbd,
  0x2a, 0xf5, 0xb4, 0xbe, 0xdc, 0xe5, 0x6d, 0x3d, 0x81, 0xa6, 0xd4, 0xbd,
  0xe2, 0x17, 0x43, 0xbe, 0x91, 0x26, 0x3e, 0xbe, 0x7d, 0x3b, 0x2d, 0xbe,
  0x28, 0x21, 0x50, 0xbe, 0xce, 0x96, 0x10, 0xbe, 0x3d, 0x5d, 0x43, 0xbe,
  0xa2, 0x85, 0x39, 0xbd, 0xd7, 0xc9, 0x4d, 0x3e, 0x40, 0x9d, 0x59, 0xbe,
  0x43, 0xcc, 0xce, 0xbd, 0x65, 0xc8, 0x4b, 0xbe, 0xb3, 0xb7, 0xef, 0xbd,
  0x7d, 0xf2, 0x00, 0xbe, 0x18, 0xd9, 0xcb, 0xbd, 0xec, 0x7b, 0x1c, 0xbe,
  0xad, 0x3c, 0xac, 0x3d, 0x6d, 0x37, 0x32, 0x3e, 0x4c, 0x2f, 0x41, 0xbe,
  0x86, 0xfb, 0xc3, 0xbd, 0x21, 0x8b, 0x07, 0xbe, 0x9d, 0x56, 0x66, 0xbe,
  0x95, 0x4b, 0x99, 0x3d, 0xdf, 0x5c, 0x53, 0xbd, 0x95, 0xa6, 0x54, 0x3c,
  0x7d, 0xa6, 0x46, 0xbe, 0x67, 0x2e, 0x27, 0xbe, 0xd9, 0x55, 0xc9, 0x3d,
  0x6f, 0xc9, 0x09, 0x3e, 0xe3, 0xe3, 0x13, 0x3e, 0x64, 0xff, 0x36, 0xbe,
  0xcc, 0x5b, 0x6d, 0x3d, 0x93, 0xbd, 0xac, 0xbd, 0xdd, 0x34, 0xbf, 0xbd,
  0x1e, 0xfa, 0xaf, 0x3d, 0x33, 0x19, 0x22, 0x3e, 0xc5, 0x70, 0xb2, 0xbd,
  0x60, 0x3b, 0x6d, 0xbe, 0xbd, 0xb6, 0x96, 0x3b, 0xfd, 0x19, 0xca, 0x3c,
  0x29, 0x7e, 0xf0, 0xbc, 0x7d, 0x3a, 0x40, 0x3e, 0xde, 0xa9, 0x56, 0x3d,
  0x0e, 0xa9, 0x13, 0xbe, 0x90, 0xbc, 0x47, 0xbe, 0xd8, 0x2b, 0x0a, 0xbd,
  0x7d, 0x38, 0x59, 0xbe, 0x78, 0x2f, 0x35, 0xbe, 0xd6, 0x67, 0x6a, 0xbe,
  0x43, 0x0a, 0xb2, 0x3c, 0xd0, 0xd8, 0x3d, 0xbe, 0xc2, 0x5d, 0xfc, 0xbd,
  0x44, 0x11, 0x0f, 0xbc, 0x74, 0xb9, 0x57, 0xbe, 0xfd, 0x88, 0x34, 0xbe,
  0x66, 0xb4, 0x96, 0xbe, 0x31, 0xf7, 0xe4, 0xbd, 0x95, 0xab, 0x4e, 0xbe,
  0x06, 0x33, 0x8b, 0xbd, 0x8d, 0x96, 0x44, 0xbe, 0x68, 0xf6, 0x78, 0xbe,
  0x01, 0xd7, 0x53, 0x3d, 0x3a, 0x8f, 0xd7, 0xbe, 0x55, 0x8d, 0x30, 0xbe,
  0x68, 0x66, 0x16, 0xbe, 0x49, 0xd7, 0x5f, 0xbe, 0xa8, 0x63, 0x5b, 0xbd,
  0xd1, 0x2e, 0xeb, 0xbd, 0xd2, 0x49, 0x3c, 0x3d, 0xbb, 0x1b, 0x7d, 0x3d,
  0x1c, 0x4a, 0x53, 0x3e, 0xdd, 0xe8, 0x7a, 0x3c, 0x07, 0x03, 0xc9, 0xbd,
  0x59, 0xa7, 0x94, 0x3e, 0x11, 0x90, 0x66, 0x3e, 0xaa, 0xe6, 0x3e, 0x3e,
  0xbb, 0xb6, 0x40, 0xbe, 0xa4, 0xb3, 0x92, 0x3e, 0x40, 0x36, 0xea, 0xbd,
  0x6b, 0xd3, 0x27, 0x3e, 0xfe, 0x12, 0x95, 0xbd, 0x85, 0xb5, 0xbd, 0xbe,
  0x9b, 0xcc, 0x2d, 0xbe, 0x1d, 0xea, 0xf2, 0x3e, 0x57, 0x17, 0xaa, 0xbe,
  0x11, 0xa5, 0x3c, 0xbe, 0x6f, 0xd6, 0x4b, 0xbd, 0x31, 0xdf, 0x7a, 0x3d,
  0xdb, 0xab, 0x1f, 0x3e, 0x3c, 0xbe, 0x9d, 0x3d, 0x2f, 0x88, 0x15, 0xbf,
  0x15, 0xea, 0x27, 0xbe, 0xf0, 0xac, 0xa0, 0x3d, 0x7d, 0x5d, 0xa5, 0xbb,
  0xf8, 0xeb, 0x92, 0xbd, 0xfd, 0x6c, 0x95, 0xbe, 0x30, 0x1f, 0x0e, 0xbe,
  0x2d, 0x1e, 0x14, 0xbe, 0x25, 0x0a, 0x21, 0xbf, 0x61, 0xa2, 0x96, 0x3f,
  0x7c, 0x7d, 0x4a, 0xbe, 0x22, 0x23, 0x52, 0xbe, 0xe3, 0x0c, 0xc5, 0xbd,
  0x40, 0xc0, 0x00, 0x3d, 0x28, 0x01, 0x7d, 0xbb, 0xd0, 0xcd, 0x02, 0x3c,
  0xf0, 0xee, 0x03, 0xbf, 0x9a, 0x2a, 0x93, 0xbe, 0x69, 0xe2, 0xa8, 0x3d,
  0x78, 0xee, 0x91, 0x3c, 0x7f, 0x13, 0x2b, 0xbe, 0x0f, 0x10, 0x91, 0xbe,
  0x45, 0xb8, 0x1a, 0xbd, 0x7c, 0x34, 0x90, 0xbe, 0xac, 0x31, 0xdd, 0xbe,
  0xf4, 0x55, 0xcc, 0x3f, 0x16, 0x51, 0xca, 0xbd, 0x98, 0x2a, 0xe1, 0xbd,
  0xac, 0xe4, 0xfb, 0x3c, 0xad, 0x28, 0xc5, 0x3c, 0x75, 0xab, 0x94, 0x3d,
  0x23, 0x62, 0x32, 0x3d, 0x11, 0xf5, 0x59, 0xbf, 0xd9, 0xde, 0xd0, 0xbe,
  0x73, 0x67, 0x39, 0x3d, 0xe5, 0xdf, 0xae, 0xbd, 0x1b, 0x74, 0xd2, 0xbd,
  0x78, 0x0b, 0x2b, 0xbb, 0x75, 0xae, 0x19, 0x3e, 0x76, 0x19, 0xff, 0x3d,
  0x46, 0x7f, 0xda, 0xbe, 0x02, 0x93, 0x5d, 0x3f, 0x30, 0x6b, 0xd1, 0xbd,
  0x91, 0xd4, 0xa0, 0xbd, 0x69, 0x4e, 0x9b, 0x3e, 0xa8, 0xc7, 0x36, 0xbd,
  0x86, 0xc5, 0xee, 0x3c, 0xa9, 0x6a, 0x87, 0xbe, 0x45, 0x7a, 0x58, 0x3c,
  0xf0, 0x2b, 0xe2, 0xbe, 0xdc, 0xd0, 0x40, 0x3e, 0xbe, 0xe4, 0x90, 0x3e,
  0xc9, 0x68, 0xcc, 0xbc, 0xb9, 0x87, 0xc9, 0x3d, 0xd1, 0x79, 0x44, 0x3e,
  0xd6, 0x18, 0xd4, 0xbd, 0xca, 0x15, 0xe2, 0x3d, 0xc4, 0xd7, 0x2b, 0xbe,
  0xcd, 0x5d, 0xb6, 0x3d, 0xb1, 0x1b, 0x3a, 0xbc, 0x33, 0x5a, 0x59, 0x3e,
  0xd9, 0x1b, 0x83, 0xbd, 0x5c, 0xbb, 0x2b, 0x3e, 0xa0, 0x1e, 0xb3, 0xbd,
  0x71, 0x95, 0x1f, 0x3d, 0x07, 0x0a, 0x85, 0xbe, 0xc7, 0xbd, 0x1d, 0xbe,
  0x83, 0x31, 0x6d, 0x3e, 0x3b, 0x7a, 0xe9, 0xbd, 0x17, 0xd2, 0x6f, 0xbe,
  0xae, 0x90, 0x9f, 0x3d, 0x87, 0x49, 0x4c, 0x3c, 0xe6, 0xb3, 0x2b, 0xbd,
  0x25, 0x95, 0xcb, 0x3d, 0x17, 0xf9, 0xd5, 0x3d, 0x88, 0xe3, 0xb6, 0xbc,
  0x96, 0x8b, 0x4a, 0x3e, 0x61, 0x9e, 0x21, 0xbd, 0x37, 0xae, 0xf6, 0xbc,
  0xe4, 0xe8, 0xbe, 0x3c, 0x30, 0x5e, 0xb9, 0x3d, 0xca, 0xee, 0xaa, 0x3d,
  0xa9, 0xb7, 0x29, 0xbe, 0x0a, 0xb0, 0xc3, 0x3d, 0x2b, 0x52, 0xc3, 0xbc,
  0x4c, 0xbc, 0x2e, 0x3e, 0xce, 0x04, 0xde, 0x3c, 0x68, 0x4d, 0x0d, 0x3d,
  0x8f, 0x3c, 0x0c, 0x3e, 0xb7, 0x58, 0xd1, 0x3e, 0xf6, 0x07, 0xdd, 0xbe,
  0xac, 0x96, 0x10, 0xbf, 0xc1, 0x76, 0xa9, 0xbe, 0xe0, 0x3a, 0x41, 0xbd,
  0x19, 0x33, 0x23, 0xbe, 0x83, 0x55, 0x79, 0xbd, 0xae, 0xdd, 0x4f, 0x3d,
  0xac, 0x47, 0x14, 0x3e, 0x31, 0xc4, 0x98, 0xbe, 0xf8, 0x5a, 0x8a, 0xbe,
  0x5f, 0xb6, 0x64, 0x3e, 0xa4, 0xde, 0x9c, 0xbe, 0xe2, 0x0e, 0xb7, 0xbe,
  0x8b, 0xc8, 0x18, 0xbf, 0x53, 0x56, 0x7a, 0x3d, 0x3d, 0x04, 0xc5, 0x3f,
  0x8f, 0xef, 0x43, 0x3d, 0x5c, 0xd7, 0xdf, 0xbe, 0x0b, 0xb9, 0x28, 0xbe,
  0x3b, 0x76, 0x5d, 0xbd, 0x64, 0x0d, 0x30, 0x3c, 0xc3, 0x1f, 0x81, 0x3e,
  0x88, 0x69, 0x14, 0x3e, 0xbb, 0x04, 0x36, 0x3e, 0x4d, 0xf6, 0x5a, 0xbe,
  0xfe, 0x25, 0x31, 0x3e, 0xc8, 0x6b, 0x16, 0xbe, 0x13, 0x67, 0x95, 0x3d,
  0x41, 0x28, 0xf5, 0xbe, 0xc6, 0xd1, 0xc8, 0xbe, 0xfd, 0x7b, 0xc0, 0xbd,
  0x05, 0x26, 0xd3, 0x3f, 0xcf, 0x0d, 0x67, 0x3d, 0x7f, 0x7b, 0xed, 0xbd,
  0x78, 0x18, 0xab, 0x3d, 0x7c, 0x75, 0xad, 0x3d, 0xaf, 0xae, 0x2c, 0xbc,
  0xf1, 0x1b, 0xde, 0x3c, 0xbb, 0x51, 0x32, 0x3e, 0xf2, 0xc3, 0x8b, 0x3e,
  0x58, 0x59, 0x7a, 0x3d, 0x8c, 0xc9, 0x7f, 0xbc, 0x66, 0xa7, 0x0a, 0xbe,
  0x65, 0xcc, 0x80, 0x3d, 0x25, 0xf9, 0xd2, 0xbd, 0x68, 0xa5, 0x9f, 0xbe,
  0x3e, 0x59, 0x2e, 0x3e, 0x05, 0x89, 0x17, 0x40, 0x26, 0xbb, 0x46, 0xbe,
  0xdd, 0xae, 0x13, 0xbe, 0x29, 0x17, 0x0e, 0x3b, 0x65, 0x2d, 0xcd, 0x3d,
  0x45, 0xe0, 0x13, 0xbe, 0x3d, 0xe3, 0x32, 0x3e, 0xcf, 0x42, 0x86, 0x3e,
  0x96, 0x16, 0x69, 0xbe, 0x1f, 0x4d, 0xd3, 0xbc, 0x1b, 0x12, 0x1a, 0xbe,
  0xe8, 0x25, 0xfa, 0xbc, 0x3b, 0x97, 0x93, 0xbe, 0x24, 0x82, 0x67, 0xbe,
  0x18, 0xcb, 0x95, 0xbe, 0xd9, 0xf7, 0x48, 0x3e, 0x50, 0x7d, 0x19, 0x40,
  0xd0, 0x34, 0x7e, 0xbe, 0x94, 0x24, 0xa2, 0xbe, 0x5b, 0xcc, 0x83, 0xbe,
  0x08, 0x27, 0x80, 0x3b, 0x5c, 0x45, 0x78, 0xbe, 0x64, 0xbf, 0x21, 0xbe,
  0xb8, 0x09, 0x96, 0x3e, 0x18, 0x38, 0x1e, 0x3e, 0xae, 0x41, 0x95, 0x3d,
  0x71, 0x91, 0x6a, 0xbe, 0xfc, 0xbd, 0x80, 0xbc, 0x41, 0x3f, 0xaf, 0xbe,
  0x92, 0xd9, 0x92, 0x3b, 0x44, 0x37, 0xaf, 0xbb, 0x06, 0x3c, 0x7e, 0x3e,
  0x2f, 0xc3, 0xe3, 0x3f, 0x35, 0x0e, 0x4d, 0xbe, 0x21, 0xb5, 0x6b, 0xbe,
  0xf1, 0xa5, 0xbb, 0xbd, 0x8c, 0x13, 0xa6, 0xbc, 0x6d, 0xc6, 0xa6, 0xbc,
  0x29, 0x44, 0xb8, 0xbc, 0x5d, 0xf6, 0x26, 0x3e, 0xef, 0x42, 0x94, 0x3e,
  0xe6, 0x8c, 0xce, 0x3d, 0x77, 0x33, 0x1a, 0xbe, 0x6d, 0xd0, 0xe6, 0xbd,
  0x00, 0xb7, 0x9c, 0xbb, 0x3a, 0x0e, 0x64, 0x3c, 0xb0, 0xe9, 0x9d, 0xbd,
  0x58, 0xf1, 0x34, 0xbe, 0xad, 0xde, 0x21, 0x40, 0x02, 0x11, 0x23, 0xbd,
  0xef, 0x45, 0x95, 0xbe, 0x88, 0xc6, 0xca, 0xbd, 0x5f, 0xd5, 0x11, 0x3e,
  0xba, 0x04, 0x18, 0xbc, 0x14, 0x67, 0x4b, 0xbe, 0xa1, 0xf2, 0x0b, 0x3e,
  0x19, 0x40, 0xe0, 0xbc, 0xe1, 0x6f, 0xba, 0x3b, 0x14, 0xf4, 0xad, 0xbd,
  0x4c, 0x79, 0xeb, 0xbc, 0x27, 0xc0, 0x94, 0xbe, 0x7a, 0x59, 0x18, 0xbe,
  0xa5, 0x50, 0x41, 0xbe, 0x73, 0x5b, 0x0c, 0x3e, 0x27, 0xc2, 0xf9, 0x3e,
  0x8a, 0x60, 0xfe, 0xbc, 0xfe, 0x7c, 0x80, 0xbd, 0x6e, 0x2c, 0x0e, 0xbe,
  0xaa, 0x17, 0xb4, 0xbd, 0x21, 0xfd, 0x27, 0xbe, 0x6c, 0x62, 0x90, 0xbe,
  0xce, 0x42, 0x9a, 0xbd, 0x43, 0x47, 0x98, 0xbc, 0xfb, 0x3f, 0x2c, 0x3e,
  0xb2, 0x27, 0x44, 0xbe, 0x05, 0x9f, 0x65, 0xbd, 0xbf, 0x6c, 0x6f, 0x3d,
  0x97, 0x31, 0xcf, 0x3d, 0x95, 0x68, 0x10, 0x3e, 0x8c, 0x3f, 0x97, 0xbb,
  0xe5, 0x37, 0x8b, 0xbe, 0x40, 0x6c, 0xe7, 0xbd, 0xd4, 0xf2, 0x16, 0x3d,
  0xb9, 0xf0, 0x47, 0xbd, 0x01, 0x28, 0xff, 0xbd, 0xdc, 0xc0, 0xb8, 0x3d,
  0x68, 0x28, 0x29, 0x3e, 0xea, 0x67, 0xbb, 0xbd, 0x2a, 0x4b, 0x80, 0xbe,
  0xc3, 0x93, 0x74, 0x3e, 0x2c, 0x03, 0x3b, 0xbe, 0x93, 0x32, 0xed, 0x3c,
  0xe4, 0x07, 0x17, 0x3d, 0xa6, 0xe5, 0x66, 0xbd, 0x17, 0xf8, 0x66, 0x3d,
  0xcd, 0x0c, 0xeb, 0x3d, 0x51, 0x3c, 0xa4, 0xbe, 0xbb, 0xc7, 0xb9, 0xbd,
  0x34, 0x84, 0xdf, 0xbb, 0x5a, 0x45, 0xde, 0xbc, 0x16, 0x42, 0x72, 0xbe,
  0x82, 0x29, 0x89, 0x3d, 0xc5, 0xcf, 0x03, 0xbd, 0xc3, 0x54, 0xff, 0xbd,
  0xf0, 0xc3, 0xfc, 0xbb, 0x0e, 0x66, 0xb5, 0x3d, 0xfe, 0x7d, 0xea, 0x3d,
  0xfe, 0xf3, 0x3c, 0x3d, 0x80, 0x8f, 0x2f, 0xbc, 0x6b, 0x2a, 0x9c, 0xbc,
  0x6e, 0x68, 0xcf, 0x3c, 0x3c, 0x49, 0x1f, 0x3d, 0x8d, 0xd1, 0xc5, 0xbe,
  0x97, 0x7e, 0x62, 0xbd, 0xea, 0xb2, 0x9e, 0x3d, 0x92, 0xa5, 0x40, 0x3d,
  0xf4, 0x11, 0x73, 0xbe, 0x12, 0xa6, 0x47, 0x3d, 0x46, 0x0b, 0xa0, 0xbc,
  0xb3, 0x89, 0x26, 0x3b, 0x28, 0x95, 0x87, 0x3d, 0xef, 0xa1, 0x4d, 0x3e,
  0xa8, 0xca, 0x53, 0x3d, 0x11, 0x3f, 0x43, 0x3d, 0x82, 0xf7, 0x90, 0xbc,
  0xf8, 0x4a, 0x89, 0xbd, 0xc0, 0xe1, 0x1a, 0x3d, 0xc5, 0x1f, 0x6e, 0x3d,
  0xc1, 0xe0, 0xb1, 0xbe, 0x8d, 0xb2, 0xa4, 0xbd, 0x29, 0x1c, 0x18, 0x3d,
  0x5d, 0xce, 0xaa, 0xbd, 0xea, 0xcb, 0xc6, 0x3c, 0xeb, 0x83, 0xd4, 0x3d,
  0x91, 0x35, 0x1a, 0xbe, 0xb0, 0xe3, 0x87, 0x3d, 0xc4, 0xe8, 0xd6, 0xbd,
  0xf4, 0x96, 0x00, 0x3e, 0x1d, 0x9b, 0x77, 0xbd, 0x55, 0x82, 0x2c, 0xbc,
  0x62, 0xa9, 0x2a, 0xbd, 0xf7, 0x96, 0xdd, 0xbc, 0xbd, 0x3e, 0xbb, 0x3c,
  0xfa, 0xd6, 0xc0, 0x3c, 0x4e, 0x55, 0xcf, 0xbe, 0x94, 0xce, 0xcc, 0xbd,
  0x87, 0xc7, 0x88, 0x3d, 0xf9, 0xf7, 0xcb, 0xbd, 0xb4, 0xe8, 0x8d, 0xbd,
  0x3b, 0x00, 0x77, 0x3e, 0xc4, 0x47, 0xa4, 0xbe, 0x8c, 0x10, 0xbb, 0xbd,
  0x8a, 0xa6, 0xfb, 0xbc, 0xe9, 0xee, 0x3d, 0x3e, 0x4f, 0xdf, 0xdf, 0xbd,
  0x0b, 0xe4, 0x78, 0xbb, 0x92, 0x66, 0x3b, 0x3d, 0x0c, 0x42, 0xcd, 0xbd,
  0xce, 0x19, 0xab, 0x3c, 0x3e, 0x13, 0x86, 0xbc, 0x93, 0xc9, 0x83, 0x3b,
  0x28, 0xfa, 0xd4, 0xbd, 0x59, 0xf5, 0xda, 0x3c, 0x30, 0x7b, 0x30, 0xbe,
  0xd7, 0x7b, 0x68, 0x3d, 0x92, 0x1e, 0x01, 0xbf, 0x96, 0x9f, 0xee, 0x3d,
  0x18, 0xf9, 0x3f, 0xbd, 0x48, 0x86, 0xff, 0xbd, 0xe5, 0xba, 0x4e, 0x3c,
  0x8f, 0x89, 0x8f, 0xbe, 0x64, 0xd3, 0x10, 0x3c, 0x6d, 0x9d, 0x21, 0x3d,
  0x20, 0x2d, 0x0c, 0xbd, 0xce, 0x91, 0x21, 0xbe, 0xb0, 0xf0, 0x9c, 0x3c,
  0xd7, 0x47, 0xd0, 0xbd, 0x7b, 0x76, 0x95, 0xbe, 0x46, 0x46, 0x48, 0xbe,
  0x19, 0xa0, 0x41, 0xbe, 0x6e, 0xdc, 0x6d, 0xbd, 0x0c, 0xb4, 0x14, 0x3e,
  0x9d, 0x1c, 0xa5, 0xbd, 0x06, 0x00, 0xda, 0x3b, 0x94, 0x21, 0xb8, 0xbd,
  0x38, 0x5b, 0x0d, 0xbd, 0x59, 0xfd, 0xc4, 0xbd, 0x58, 0xa5, 0xbd, 0xbe,
  0xad, 0xba, 0xec, 0xbc, 0xf2, 0xae, 0xa2, 0x3d, 0x12, 0x99, 0x2e, 0xbe,
  0xe3, 0x63, 0x57, 0xbe, 0xb6, 0x4c, 0x33, 0x3f, 0x76, 0x73, 0x2d, 0xbe,
  0x8c, 0x64, 0x61, 0x3d, 0xf4, 0xd6, 0x27, 0x3e, 0xea, 0x06, 0xa7, 0xbc,
  0x9b, 0x40, 0x89, 0x3d, 0x91, 0x60, 0x76, 0xbd, 0x07, 0x9f, 0xe4, 0xbd,
  0x64, 0x78, 0xfe, 0x3d, 0x2a, 0x3c, 0xf6, 0xbd, 0x0b, 0x6e, 0x46, 0x3b,
  0x7c, 0x68, 0x66, 0xbe, 0x0f, 0x64, 0x15, 0x3d, 0x01, 0xf1, 0xf2, 0x3c,
  0x8a, 0x81, 0xc9, 0xb9, 0x54, 0x13, 0x99, 0xbd, 0x7f, 0xc3, 0x34, 0x3f,
  0x12, 0x39, 0x02, 0x3c, 0xc1, 0x52, 0x91, 0x3d, 0x93, 0x4f, 0x01, 0x3a,
  0xcd, 0x2b, 0x7b, 0x3d, 0x33, 0x8b, 0x01, 0xbe, 0xc8, 0xbf, 0x13, 0xbe,
  0x4c, 0x96, 0xd2, 0x3d, 0x6c, 0xb9, 0xa3, 0xbd, 0x9e, 0xf9, 0x0b, 0x3e,
  0x73, 0xd6, 0x94, 0x3d, 0x91, 0x1b, 0x9d, 0xbd, 0x76, 0x91, 0x4c, 0xbe,
  0x41, 0xf4, 0x07, 0xbe, 0x65, 0xe8, 0xa6, 0xbd, 0xa8, 0xb3, 0x1d, 0xbe,
  0x5a, 0x3d, 0x8a, 0x3f, 0x92, 0xef, 0xad, 0x3c, 0x12, 0xa1, 0xdc, 0xbb,
  0x26, 0xd0, 0x28, 0xbe, 0xe6, 0xf7, 0x12, 0xbd, 0x48, 0xc7, 0x1c, 0xbe,
  0x72, 0x9f, 0x0d, 0x3e, 0x52, 0xe6, 0x07, 0xbe, 0xae, 0xbe, 0x07, 0xbd,
  0xf3, 0x9c, 0x1d, 0xbe, 0xbf, 0x7a, 0xed, 0xbd, 0xf8, 0xc0, 0x75, 0xbe,
  0x0c, 0x7d, 0xd9, 0x3d, 0x1f, 0x05, 0x81, 0x3d, 0x76, 0xde, 0x25, 0x3e,
  0x3d, 0x79, 0x11, 0xbd, 0x9c, 0xfb, 0x98, 0x3f, 0x0f, 0x42, 0x41, 0xbe,
  0xb9, 0xb9, 0xc9, 0xbb, 0x2c, 0x05, 0x0d, 0xbe, 0x47, 0xdb, 0xbc, 0xbd,
  0xaf, 0x65, 0x6f, 0x3d, 0x88, 0x92, 0xe0, 0xbd, 0x8a, 0x05, 0xa3, 0xbc,
  0x3b, 0x1a, 0x0d, 0xbc, 0x8a, 0xf5, 0x85, 0x3d, 0xcf, 0x8c, 0x6a, 0xbe,
  0xbe, 0x89, 0x48, 0xbe, 0x51, 0xf1, 0xec, 0x3c, 0x3a, 0x02, 0xac, 0x3d,
  0x76, 0xb9, 0x03, 0x3e, 0x5c, 0xc9, 0x1d, 0xbe, 0xce, 0x2f, 0x77, 0x3f,
  0xd0, 0xf6, 0x96, 0x3d, 0x66, 0x32, 0x24, 0xbe, 0x44, 0x7e, 0x52, 0xbc,
  0xab, 0xe4, 0x44, 0xbe, 0x65, 0xfc, 0x0a, 0x3d, 0x83, 0x80, 0x1f, 0xbe,
  0x24, 0x5a, 0xbc, 0x3c, 0x87, 0x62, 0x0c, 0xbc, 0x4d, 0x90, 0xc0, 0xbd,
  0xfc, 0xd9, 0xf7, 0xbd, 0x8d, 0xcd, 0x9a, 0xbe, 0x5d, 0xdc, 0x33, 0xbe,
  0x5f, 0x1b, 0x2c, 0xbd, 0x5b, 0xcc, 0x54, 0xbd, 0x6f, 0x8f, 0x8c, 0xbe,
  0x99, 0xb7, 0x9a, 0x3f, 0x5c, 0x88, 0xe7, 0xbd, 0xb8, 0x42, 0x14, 0xbe,
  0xe9, 0x42, 0x4e, 0xbc, 0x8d, 0xcc, 0xeb, 0xbd, 0x64, 0x7f, 0xa2, 0xbd,
  0x08, 0x74, 0xce, 0x3b, 0xa8, 0x2c, 0xf6, 0xbd, 0x3c, 0x1f, 0x2e, 0xbe,
  0x1e, 0x44, 0x61, 0xbe, 0xfe, 0xc6, 0x59, 0xbe, 0x9a, 0xc8, 0xa9, 0xbe,
  0x96, 0x94, 0xe3, 0xbb, 0x54, 0x0a, 0x97, 0x3c, 0xa6, 0x26, 0x3f, 0x3e,
  0xbc, 0xc7, 0x63, 0xbe, 0x1c, 0xa6, 0x9a, 0x3e, 0xf4, 0xe4, 0x76, 0xbe,
  0x71, 0xa8, 0x54, 0x3e, 0x06, 0x06, 0x0a, 0xbc, 0x7b, 0x79, 0x5b, 0xbe,
  0x8a, 0x58, 0x66, 0x3d, 0x1b, 0x83, 0xa3, 0xbd, 0x64, 0x1a, 0xcf, 0xbc,
  0x6c, 0x8e, 0x89, 0xbd, 0xeb, 0xc6, 0x01, 0x3d, 0x4e, 0x1b, 0x3b, 0xbd,
  0x5b, 0x27, 0x7e, 0xbd, 0x97, 0x5d, 0x73, 0x3e, 0x10, 0x50, 0x03, 0x3e,
  0x3e, 0x6a, 0x75, 0x3e, 0xe2, 0x8c, 0xe9, 0xbc, 0x60, 0x16, 0x03, 0xbe,
  0xb3, 0xd9, 0x2a, 0xbe, 0xa7, 0x0d, 0x84, 0x3e, 0x9d, 0x73, 0xc2, 0x3b,
  0x3e, 0xa4, 0x01, 0xbe, 0x2f, 0x7a, 0xda, 0x3c, 0xf9, 0x06, 0xeb, 0xbd,
  0x55, 0xb7, 0xe7, 0xbd, 0x55, 0xec, 0xf9, 0xbd, 0xfa, 0xaa, 0xb1, 0x3e,
  0x6c, 0xed, 0x95, 0xbd, 0xcd, 0xa7, 0x1b, 0xbe, 0xe4, 0x9f, 0x25, 0x3d,
  0x91, 0x54, 0xf6, 0xbc, 0x8a, 0xe0, 0x84, 0xbd, 0xee, 0x3e, 0x9a, 0x3a,
  0x25, 0x3d, 0x09, 0x3e, 0xf4, 0x7d, 0x2b, 0xbe, 0x3b, 0x99, 0x72, 0x3d,
  0x8f, 0x5c, 0x76, 0x3b, 0x47, 0x20, 0x21, 0xbe, 0x23, 0xe2, 0xd2, 0x3d,
  0x93, 0xd8, 0x3b, 0x3d, 0xf3, 0xde, 0x93, 0xbd, 0xc8, 0xd8, 0xe2, 0xbb,
  0xac, 0x8d, 0x94, 0x3e, 0x32, 0x34, 0xc9, 0xbd, 0x59, 0x3f, 0x7f, 0xbe,
  0x54, 0x01, 0x5f, 0xbc, 0xbe, 0xa6, 0xd3, 0x3d, 0x51, 0x54, 0x29, 0xbe,
  0xd5, 0x94, 0x10, 0x3e, 0x03, 0x33, 0xe2, 0xbd, 0x4c, 0x73, 0xde, 0x39,
  0x8d, 0x7b, 0x4a, 0x3a, 0xee, 0x6a, 0x2f, 0xbc, 0x06, 0x11, 0x6a, 0xbe,
  0x07, 0x00, 0x06, 0xbd, 0xc5, 0xf2, 0x57, 0xbe, 0xfc, 0x67, 0xd1, 0x3d,
  0xc0, 0x63, 0x1c, 0xbe, 0x31, 0x27, 0xc0, 0x3e, 0x36, 0x1a, 0x2e, 0x3d,
  0x78, 0x13, 0x6c, 0xbe, 0xbc, 0x35, 0x11, 0xbe, 0x87, 0xe8, 0x24, 0x3e,
  0xe3, 0x74, 0x88, 0xbe, 0x33, 0xa3, 0x11, 0x3e, 0xd8, 0x4f, 0x03, 0xbe,
  0x77, 0x0a, 0x16, 0xbe, 0x1b, 0xb3, 0x3b, 0xbe, 0x73, 0x38, 0x79, 0x3c,
  0x32, 0xae, 0x4e, 0xbe, 0x62, 0xf3, 0x6c, 0xbd, 0xc4, 0x81, 0xa0, 0x3d,
  0xb4, 0x67, 0xd5, 0xbc, 0x52, 0x8b, 0x3b, 0xbe, 0x59, 0x05, 0xcb, 0x3e,
  0x24, 0x22, 0x5b, 0xbd, 0x0a, 0x24, 0x63, 0xbe, 0xce, 0xa0, 0x9a, 0xbd,
  0xf3, 0xb9, 0x32, 0xbe, 0xd2, 0xd2, 0xaa, 0xba, 0x34, 0xad, 0x1c, 0x3e,
  0x80, 0x69, 0x08, 0x3d, 0x62, 0x79, 0x97, 0xbe, 0x26, 0x8d, 0x98, 0xbe,
  0xdf, 0x0c, 0x1b, 0xbe, 0xd3, 0x85, 0x45, 0xbe, 0x86, 0xef, 0x7d, 0x3c,
  0xd2, 0x2b, 0x26, 0xbe, 0x62, 0x00, 0x3f, 0xbe, 0xc6, 0x51, 0x52, 0x3c,
  0x7f, 0xf0, 0x57, 0xbd, 0xdb, 0x82, 0x1f, 0x3e, 0xab, 0xd7, 0x3d, 0xbe,
  0xf4, 0x3d, 0x7f, 0xbd, 0x40, 0x5a, 0x49, 0xbe, 0xba, 0x3f, 0x42, 0xbe,
  0x3c, 0xf0, 0x01, 0x3e, 0x98, 0x7a, 0x1f, 0xbd, 0x47, 0x44, 0x5e, 0xbe,
  0xc5, 0x50, 0x6b, 0xbe, 0x0c, 0x8a, 0x71, 0xbe, 0x90, 0xed, 0x4e, 0xbe,
  0x38, 0x3a, 0xb6, 0xbd, 0xfc, 0xb2, 0x22, 0x3e, 0x25, 0x26, 0xdf, 0xbd,
  0xfc, 0x3c, 0xa3, 0xbd, 0xaa, 0x6c, 0xdb, 0xbd, 0xe9, 0xd4, 0x0c, 0xbe,
  0x01, 0x6f, 0x5d, 0xbe, 0x21, 0x4b, 0xdf, 0x3d, 0xd1, 0xd9, 0xa1, 0xbe,
  0x1d, 0x0e, 0x08, 0x3d, 0x3b, 0x46, 0x26, 0x3e, 0x85, 0x08, 0xbd, 0xbd,
  0x09, 0x43, 0x21, 0xbe, 0x1e, 0x88, 0x96, 0xbd, 0xdb, 0x80, 0x35, 0xbe,
  0x59, 0x6e, 0x01, 0xbc, 0xe7, 0xe2, 0x47, 0xbe, 0xa9, 0x65, 0xf1, 0xbe,
  0x5e, 0x17, 0x3c, 0xbd, 0x31, 0xf5, 0xa2, 0x3e, 0xf2, 0xd7, 0x17, 0x3e,
  0xae, 0x43, 0x14, 0xbe, 0xe4, 0x00, 0x88, 0xbc, 0x70, 0xa9, 0x69, 0x3e,
  0x10, 0x85, 0xad, 0xbe, 0x55, 0x21, 0x2f, 0x3e, 0x82, 0x0c, 0x00, 0x3e,
  0xce, 0x23, 0xd3, 0x3f, 0xd6, 0x39, 0x1a, 0xbe, 0xd2, 0x01, 0xeb, 0x3d,
  0xf7, 0x85, 0xbe, 0x3b, 0x66, 0x66, 0x08, 0xbd, 0x73, 0xae, 0xa4, 0xbd,
  0x99, 0x57, 0xf6, 0x3e, 0x05, 0xdb, 0x02, 0x3e, 0xbd, 0x36, 0x84, 0x3e,
  0x7b, 0xc7, 0x8c, 0x3e, 0x4f, 0x5d, 0x2b, 0xbd, 0x62, 0xa6, 0xbf, 0x3b,
  0xe0, 0x4f, 0xbc, 0xbd, 0x15, 0xdb, 0x61, 0xbe, 0x59, 0xbf, 0x97, 0xbb,
  0x06, 0x15, 0x96, 0xb9, 0x37, 0x68, 0x17, 0x40, 0xf3, 0x7a, 0x4b, 0xbe,
  0x1c, 0x22, 0xe6, 0xbc, 0x90, 0xe0, 0x93, 0x3b, 0x89, 0xc9, 0x27, 0xba,
  0xdf, 0xa6, 0x6b, 0x3d, 0xd1, 0x09, 0x08, 0xbe, 0x55, 0x53, 0x7b, 0x3e,
  0xb8, 0x33, 0x4b, 0x3c, 0x5d, 0x3b, 0xb0, 0x3d, 0x06, 0xc6, 0x5c, 0xbd,
  0x55, 0x9e, 0x92, 0xbc, 0xed, 0xfe, 0x33, 0xbe, 0x89, 0x16, 0x0c, 0xbe,
  0x8a, 0xc2, 0xe9, 0xbc, 0xec, 0xdf, 0xc6, 0x3d, 0xa4, 0x08, 0x21, 0x40,
  0x73, 0x95, 0xcf, 0xbe, 0x4d, 0xab, 0xc8, 0xbd, 0xed, 0x07, 0xbb, 0xbd,
  0xae, 0xd6, 0xd2, 0x3c, 0x68, 0xab, 0x28, 0x3e, 0x5e, 0xb8, 0x87, 0xbd,
  0x03, 0xd2, 0x8b, 0x3e, 0x38, 0xcd, 0x61, 0x3d, 0xd2, 0x46, 0xc4, 0x3d,
  0xf3, 0xeb, 0x7d, 0xbe, 0x1f, 0x42, 0x10, 0xbc, 0x6c, 0x42, 0xdc, 0xbd,
  0xa7, 0x7e, 0x5e, 0x3d, 0x80, 0x4d, 0xaa, 0x3c, 0xcc, 0x32, 0xc0, 0x3b,
  0xbf, 0x71, 0x60, 0x40, 0x39, 0x7f, 0x0e, 0xbf, 0x65, 0x79, 0x81, 0xbc,
  0x23, 0x65, 0x0a, 0xbe, 0xea, 0xce, 0xd2, 0xba, 0x17, 0xf1, 0x7d, 0xbe,
  0x4a, 0x97, 0x17, 0x3c, 0x90, 0xb9, 0x2f, 0x3e, 0x57, 0xe3, 0x3d, 0x3e,
  0x30, 0xc9, 0x16, 0x3e, 0xad, 0x94, 0xb1, 0xbe, 0xc8, 0x7b, 0x48, 0xbc,
  0x5c, 0xd9, 0x9a, 0xbe, 0x97, 0x7f, 0x41, 0xbc, 0xf1, 0x2e, 0xc8, 0xbd,
  0x31, 0x06, 0x0d, 0xbd, 0x3a, 0x6e, 0x30, 0x40, 0x1e, 0x7b, 0xd5, 0xbe,
  0x46, 0x6c, 0xf2, 0xbe, 0x2c, 0x3d, 0xa6, 0xbe, 0xab, 0xf7, 0x42, 0x3d,
  0xfb, 0xb3, 0x7a, 0x3d, 0x81, 0x93, 0x0d, 0xbe, 0xfe, 0x86, 0xd2, 0x3d,
  0x70, 0x6c, 0xb1, 0x3e, 0x31, 0xa6, 0x26, 0xbe, 0x70, 0x03, 0xdf, 0xbe,
  0xe7, 0x75, 0x66, 0x3d, 0x52, 0x04, 0x5c, 0xbe, 0x41, 0xb7, 0x79, 0xbd,
  0xbf, 0x8d, 0x26, 0xbe, 0x77, 0x42, 0x70, 0x3e, 0x0d, 0x9c, 0x1e, 0x40,
  0x8f, 0xc6, 0x10, 0xbd, 0x52, 0x2d, 0x03, 0xbd, 0x67, 0xc1, 0x6b, 0xbe,
  0x7f, 0xb7, 0xa6, 0xbd, 0x30, 0x2f, 0xe0, 0xbc, 0xa7, 0xcf, 0x30, 0x3d,
  0xd5, 0x42, 0x23, 0x3d, 0xd9, 0x76, 0xbc, 0x3d, 0x90, 0x4f, 0xcc, 0xbc,
  0x18, 0x7f, 0xd8, 0xbe, 0xf2, 0x2f, 0xd4, 0xbc, 0x06, 0x29, 0xfc, 0x3c,
  0x84, 0xd8, 0x94, 0x3b, 0x03, 0x7b, 0xa8, 0x3c, 0x36, 0x25, 0x00, 0x3e,
  0xde, 0x76, 0x8b, 0x3d, 0x8d, 0xb1, 0x11, 0xbe, 0x9a, 0xb8, 0x20, 0x3e,
  0xa4, 0x08, 0x07, 0xbe, 0x08, 0xbb, 0x34, 0xbf, 0x3a, 0x25, 0x98, 0xbd,
  0x17, 0xa2, 0x2a, 0x3c, 0x15, 0xa0, 0xae, 0x3d, 0x84, 0xeb, 0xef, 0x3d,
  0x60, 0x2d, 0xa7, 0x3e, 0x41, 0x89, 0xa4, 0xbd, 0x11, 0x96, 0x4b, 0x3e,
  0x2f, 0xff, 0x05, 0x3d, 0x5c, 0x69, 0xeb, 0xbc, 0x2f, 0x41, 0x45, 0x3e,
  0x86, 0xda, 0x6e, 0xbe, 0xeb, 0x5e, 0x61, 0x3d, 0x0a, 0x9d, 0xfb, 0xbd,
  0xfb, 0xd1, 0x1f, 0x3e, 0xfb, 0x2c, 0x17, 0x3e, 0xbf, 0x06, 0x7f, 0xbe,
  0x34, 0x0d, 0xc5, 0x3d, 0xda, 0x38, 0x99, 0x3e, 0xe1, 0x54, 0x54, 0xbd,
  0x57, 0xa9, 0x11, 0xbe, 0x21, 0xe9, 0x08, 0x3f, 0xa3, 0xbf, 0x8a, 0xbe,
  0x4a, 0xc8, 0x0d, 0x3d, 0x03, 0x7c, 0x05, 0x3d, 0x50, 0x39, 0x52, 0xbe,
  0xb8, 0xda, 0xd0, 0x3d, 0x88, 0x1c, 0xb3, 0xbd, 0x37, 0x9d, 0x82, 0xbd,
  0xf9, 0x25, 0x89, 0xbe, 0xdf, 0xb0, 0xe4, 0xbd, 0x02, 0x2e, 0x45, 0x3e,
  0xda, 0xea, 0x1c, 0xbf, 0x53, 0xd5, 0xe3, 0x3d, 0x23, 0xca, 0x6c, 0x3c,
  0x94, 0xfb, 0x00, 0xbe, 0xa9, 0xc1, 0xae, 0x3e, 0x71, 0x6e, 0x1a, 0x3e,
  0xae, 0x75, 0x0b, 0x3d, 0x6c, 0x69, 0x23, 0xbe, 0xb9, 0xb0, 0x76, 0x3b,
  0xac, 0xea, 0x1c, 0xbe, 0x39, 0xdd, 0x3d, 0x3e, 0xdc, 0x04, 0x5c, 0x3e,
  0xe4, 0xa6, 0xe0, 0xbd, 0x59, 0xfb, 0x8a, 0xbe, 0x56, 0x46, 0xb6, 0xbc,
  0x70, 0x72, 0x94, 0x3e, 0xde, 0xa4, 0x21, 0xbf, 0x1e, 0x78, 0xbc, 0x3d,
  0xae, 0xed, 0xa2, 0xbe, 0x1e, 0x2e, 0x27, 0x3c, 0xd1, 0x37, 0x4a, 0x3e,
  0x54, 0x8a, 0xfc, 0x3e, 0x4d, 0xd0, 0xc9, 0xbe, 0x42, 0x84, 0x1f, 0xbe,
  0xc3, 0xec, 0x00, 0x3e, 0xa5, 0x0b, 0x59, 0x3d, 0x2a, 0x66, 0x86, 0x3d,
  0xa5, 0x43, 0x52, 0x3e, 0x52, 0x91, 0xff, 0x3d, 0xd9, 0x69, 0x8a, 0xbe,
  0x1e, 0x7f, 0xc4, 0xbd, 0xbe, 0x04, 0x10, 0x3c, 0x6b, 0x8f, 0x05, 0xbf,
  0x20, 0x6d, 0x88, 0x3e, 0x04, 0xd7, 0x47, 0xbe, 0x62, 0x4f, 0x8d, 0x3c,
  0x52, 0x43, 0xaf, 0x3d, 0xbf, 0xbb, 0xa2, 0x3e, 0x38, 0xe5, 0x03, 0xbe,
  0x51, 0x73, 0x22, 0xbe, 0x20, 0x82, 0xeb, 0x3c, 0xd6, 0x82, 0x92, 0xbd,
  0x35, 0x9e, 0x32, 0x3e, 0x75, 0xc7, 0x6a, 0x3e, 0x08, 0x53, 0xe2, 0x3c,
  0x26, 0xb7, 0x3e, 0xbe, 0x96, 0x0c, 0xc8, 0x3d, 0x88, 0x19, 0xf9, 0xbd,
  0xa7, 0x52, 0x2b, 0xbf, 0x7c, 0x52, 0xff, 0xbd, 0xb3, 0x8f, 0xcc, 0xbe,
  0xc7, 0x96, 0x88, 0xbb, 0xfc, 0x50, 0xe8, 0xbc, 0xce, 0x36, 0x2c, 0x3f,
  0xf6, 0xb4, 0xc7, 0xbd, 0xfb, 0x39, 0x1e, 0xbd, 0x39, 0x31, 0x5b, 0x3e,
  0x3b, 0xe0, 0x4e, 0xbe, 0xae, 0x38, 0x0e, 0x3e, 0x96, 0x95, 0x2c, 0x3e,
  0x2b, 0xa0, 0xb8, 0xbd, 0x39, 0x67, 0x9c, 0xbd, 0x39, 0xdb, 0x39, 0xbe,
  0xaf, 0x5e, 0x4f, 0xbd, 0x4b, 0xb2, 0x0c, 0xbf, 0x23, 0x90, 0x35, 0xbf,
  0xb9, 0x5a, 0xea, 0xbc, 0xc9, 0x4c, 0x03, 0x3e, 0x03, 0x35, 0xff, 0xbd,
  0xe1, 0x8c, 0x2d, 0xbe, 0x09, 0xa3, 0x7e, 0xbe, 0x9f, 0xf3, 0xb3, 0xbd,
  0xf9, 0xc5, 0xa9, 0x3d, 0x38, 0x12, 0x70, 0xbe, 0xe5, 0xd6, 0xf8, 0xbe,
  0x22, 0x2d, 0xa6, 0x3e, 0x96, 0xa8, 0x68, 0xbe, 0x01, 0xe3, 0x1e, 0x3e,
  0xf2, 0x24, 0xbe, 0xbd, 0x1d, 0xa2, 0x02, 0xbe, 0xe5, 0x24, 0x07, 0x3e,
  0xf3, 0x61, 0xc4, 0x3d, 0x40, 0x11, 0x6a, 0xbd, 0x7e, 0x21, 0x16, 0xbe,
  0x7b, 0x0c, 0xf9, 0xbe, 0x63, 0x22, 0x75, 0xbe, 0x40, 0xd1, 0xa7, 0xbe,
  0x43, 0xb6, 0x3c, 0xbd, 0x42, 0x30, 0x10, 0xbf, 0x5f, 0x93, 0xcf, 0x3e,
  0x59, 0x04, 0xa2, 0xbe, 0xc5, 0x3e, 0xa0, 0xbe, 0x94, 0x6f, 0x2c, 0xbe,
  0xf7, 0x72, 0x82, 0x3e, 0xaa, 0xfc, 0x8b, 0xbd, 0xbb, 0x78, 0x71, 0xbc,
  0x78, 0xff, 0x1c, 0x3e, 0x81, 0x73, 0x43, 0xbe, 0x4d, 0xb1, 0x7a, 0x3e,
  0x40, 0x3f, 0xb3, 0xbd, 0x39, 0xd1, 0x3a, 0xbf, 0x4f, 0x74, 0x02, 0xbe,
  0xb7, 0x91, 0xa7, 0xbc, 0xa9, 0x00, 0x39, 0x3a, 0x49, 0x85, 0x8f, 0xbe,
  0xb6, 0xa3, 0xf5, 0x3e, 0x5e, 0x6a, 0x57, 0xbe, 0x40, 0x58, 0x71, 0xbc,
  0xf7, 0x20, 0xf6, 0xbe, 0xe4, 0x94, 0xc1, 0x3e, 0x8f, 0x1b, 0xc8, 0xbd,
  0x00, 0x58, 0x39, 0x3e, 0xd9, 0x05, 0x0e, 0x3d, 0xc5, 0x75, 0xf5, 0x3c,
  0xbf, 0xed, 0xfb, 0x3e, 0xdd, 0x59, 0x9f, 0x3d, 0x21, 0xac, 0xd4, 0xbe,
  0x2e, 0xfa, 0xb2, 0x3d, 0x99, 0xac, 0x4d, 0x3e, 0x39, 0x66, 0x75, 0x3d,
  0x05, 0xc7, 0x13, 0xbd, 0x5d, 0x18, 0xec, 0x3e, 0xd8, 0x00, 0x00, 0xbe,
  0xf3, 0x11, 0x11, 0xbe, 0x7f, 0x64, 0xf0, 0xbe, 0x7c, 0x51, 0xc0, 0x3e,
  0x8b, 0x65, 0xd3, 0x3d, 0x2f, 0x57, 0xa6, 0xbd, 0xd0, 0xb0, 0x2b, 0x3d,
  0x17, 0xa0, 0xa7, 0xbd, 0xb6, 0x70, 0xe5, 0x3e, 0x8c, 0x3a, 0x65, 0xbd,
  0xe0, 0x67, 0xfc, 0x3d, 0x6b, 0xfd, 0x01, 0x3c, 0xdd, 0x97, 0xad, 0x3e,
  0xb2, 0x93, 0x30, 0x3d, 0x54, 0xa4, 0x3b, 0xbd, 0x63, 0x65, 0xda, 0x3e,
  0x35, 0xbc, 0x4f, 0xbe, 0x53, 0xe0, 0x80, 0xbe, 0x09, 0x2b, 0xdb, 0xbe,
  0x7a, 0x6c, 0xa8, 0x3e, 0x3b, 0x3f, 0x19, 0x3d, 0x95, 0x1c, 0x16, 0xbc,
  0x40, 0x09, 0x43, 0x3d, 0x9a, 0x64, 0x25, 0x3d, 0x21, 0xd9, 0xb5, 0x3e,
  0x6b, 0x3d, 0x6d, 0xbe, 0x2a, 0xda, 0xa6, 0xbe, 0x86, 0xb6, 0x85, 0x3d,
  0x3f, 0xcc, 0x83, 0x3d, 0x30, 0x4d, 0x7c, 0x3a, 0x98, 0x93, 0x87, 0xbc,
  0x07, 0x02, 0x6b, 0x3e, 0xbf, 0xd6, 0x95, 0xbe, 0xa8, 0x54, 0x83, 0xbe,
  0xff, 0x14, 0xd1, 0xbe, 0x77, 0x98, 0x6e, 0x3e, 0x02, 0x67, 0xdd, 0x3d,
  0xa2, 0x60, 0x0c, 0x3d, 0x1d, 0x8a, 0x16, 0xbd, 0x85, 0xd5, 0x93, 0x3d,
  0x42, 0xaf, 0x09, 0x3f, 0x1d, 0xb9, 0xc9, 0xbe, 0x80, 0x78, 0x8d, 0xbe,
  0xdb, 0x73, 0xe9, 0xbd, 0x7c, 0xbe, 0x0c, 0x3e, 0x6a, 0xf5, 0x40, 0xbd,
  0x66, 0x0d, 0x75, 0xbe, 0xd8, 0xcd, 0x80, 0x3e, 0xb8, 0xf8, 0x9e, 0xbe,
  0x5c, 0x86, 0x20, 0xbf, 0x0e, 0x78, 0xe1, 0xbe, 0xf8, 0x25, 0x3c, 0xbd,
  0x64, 0xee, 0xc4, 0x3c, 0x32, 0xf4, 0x27, 0xbe, 0x95, 0x8f, 0xe3, 0x3c,
  0x43, 0xc8, 0xae, 0x3e, 0xff, 0xce, 0x5d, 0x3d, 0x98, 0xcb, 0x31, 0xbe,
  0x39, 0x31, 0x93, 0xbe, 0xad, 0x1e, 0x95, 0x3d, 0x53, 0xd0, 0x2e, 0x3e,
  0xc6, 0xb1, 0x8c, 0x3d, 0x85, 0x6d, 0x6a, 0xbe, 0x83, 0xa0, 0x99, 0x3d,
  0x44, 0x3a, 0x3e, 0x3e, 0xaf, 0xbe, 0x0f, 0xbf, 0xa0, 0xd4, 0xb3, 0x3d,
  0xd8, 0xd0, 0x87, 0x3d, 0x53, 0x08, 0x06, 0x3e, 0xee, 0x00, 0x1b, 0x3e,
  0x09, 0x1f, 0xea, 0xbc, 0x15, 0x21, 0x89, 0xbe, 0xbd, 0x76, 0xce, 0xbd,
  0x7c, 0xe5, 0xcb, 0x3d, 0xd3, 0x32, 0xb8, 0xbc, 0x99, 0xc9, 0x61, 0xbe,
  0x79, 0xca, 0x33, 0x3e, 0x8a, 0x27, 0x0e, 0xbd, 0x62, 0x71, 0x2c, 0xbc,
  0x3f, 0xbd, 0xff, 0xbc, 0x16, 0x89, 0xb6, 0xbe, 0xf2, 0x64, 0x1a, 0x3b,
  0x2f, 0x8d, 0x8b, 0xbd, 0x61, 0x95, 0x23, 0xbe, 0xbb, 0x5a, 0x0b, 0xbe,
  0x51, 0x5b, 0x64, 0x3e, 0xf9, 0xc3, 0x3b, 0x3d, 0x16, 0x09, 0x9b, 0x3e,
  0x9c, 0xf5, 0x16, 0x3e, 0xf6, 0xc7, 0x5d, 0x3d, 0xfa, 0x1d, 0xfd, 0x3d,
  0x8b, 0x17, 0xbc, 0xbb, 0xbb, 0x8e, 0x08, 0x3e, 0xfc, 0x5d, 0xd6, 0xb8,
  0x03, 0x4b, 0xfd, 0xbc, 0x0a, 0xcd, 0x5b, 0xbd, 0x5a, 0x3c, 0x20, 0xbe,
  0x09, 0x95, 0xf9, 0x3d, 0xd2, 0x4b, 0x83, 0xbd, 0x53, 0x48, 0x85, 0xbe,
  0x2a, 0x88, 0xd0, 0xbe, 0x91, 0xd0, 0xf7, 0xbd, 0xfc, 0x6e, 0x66, 0x3d,
  0xbf, 0x2a, 0x11, 0x3d, 0xb4, 0xb3, 0xe4, 0x3d, 0x35, 0xc5, 0xe5, 0xbe,
  0xb2, 0xab, 0x45, 0x3d, 0xf1, 0x52, 0xd7, 0x3d, 0xfa, 0x4e, 0x82, 0xbe,
  0xd7, 0xac, 0x96, 0x3d, 0xfe, 0xfc, 0xc4, 0xbd, 0x42, 0x26, 0x47, 0x3e,
  0x8e, 0xac, 0xa0, 0xbd, 0x75, 0x7b, 0xd4, 0xbe, 0x76, 0x85, 0x35, 0x3e,
  0x99, 0xfc, 0x2c, 0xbe, 0xdb, 0x57, 0xcd, 0xbe, 0x71, 0xb4, 0xbf, 0x3c,
  0xd0, 0x36, 0x87, 0xbb, 0x50, 0x65, 0xce, 0xbc, 0xa4, 0xfa, 0x8c, 0x3e,
  0x64, 0xca, 0x47, 0xbf, 0x4c, 0x40, 0xf2, 0xbe, 0xf5, 0xfd, 0xd3, 0x3d,
  0x70, 0x52, 0x79, 0xbc, 0xeb, 0x05, 0x35, 0xbe, 0x06, 0x74, 0x49, 0xbe,
  0x29, 0xc1, 0x8c, 0x3d, 0x71, 0x96, 0x94, 0xbd, 0xd5, 0xe9, 0xf8, 0xbe,
  0x4e, 0xa0, 0x0d, 0xbe, 0x0e, 0xd9, 0x07, 0xbe, 0x67, 0x07, 0x8a, 0x3b,
  0x8b, 0xfb, 0x39, 0x3e, 0x93, 0xde, 0x6b, 0x3d, 0x96, 0xd5, 0x15, 0x3e,
  0xd6, 0xab, 0x8f, 0x3e, 0xbe, 0x07, 0xe8, 0xbc, 0x61, 0x44, 0xb7, 0xbe,
  0x7a, 0xca, 0x0d, 0xbe, 0x98, 0x0d, 0xa2, 0x3d, 0x3a, 0x3e, 0x8a, 0xbd,
  0x05, 0x17, 0xd8, 0x3c, 0x05, 0xba, 0xef, 0x3d, 0x4f, 0xb2, 0x49, 0xbe,
  0x10, 0x14, 0x1f, 0xbd, 0x3a, 0x76, 0xe7, 0x3d, 0xa1, 0xc3, 0xd9, 0x3c,
  0x89, 0x6c, 0x07, 0xbd, 0xe1, 0x51, 0x6e, 0x3e, 0x3c, 0x54, 0x49, 0x3d,
  0x28, 0xdf, 0xa3, 0x3e, 0xd3, 0x27, 0xea, 0x3a, 0xf5, 0x3f, 0x46, 0x3d,
  0x15, 0x19, 0xd7, 0xbe, 0x50, 0x35, 0x80, 0x3c, 0x09, 0x53, 0x90, 0x3e,
  0x8e, 0x5e, 0xf0, 0xbc, 0x37, 0x1a, 0x12, 0xbe, 0xd3, 0xeb, 0x1e, 0x3e,
  0x16, 0x6e, 0x1e, 0x3e, 0x94, 0xb6, 0x03, 0x3d, 0xa1, 0x04, 0x25, 0xbe,
  0x4b, 0xc3, 0xe8, 0x3d, 0x2a, 0x93, 0x96, 0xbc, 0x32, 0x85, 0x84, 0x3e,
  0x96, 0xe1, 0xbe, 0x3d, 0xc2, 0x4e, 0xb5, 0xbd, 0x88, 0xdf, 0x4b, 0xbe,
  0xae, 0xcd, 0x87, 0x3d, 0x70, 0x7f, 0x1e, 0x3d, 0xde, 0xdb, 0x46, 0xbe,
  0xaf, 0x64, 0x9e, 0xbc, 0x95, 0x66, 0x60, 0xbd, 0x0e, 0xed, 0x15, 0x3e,
  0xbf, 0x6f, 0x1f, 0xbe, 0xeb, 0xc4, 0x37, 0x3d, 0x04, 0x6f, 0x3e, 0x3d,
  0xac, 0xcc, 0x3b, 0x3d, 0x16, 0xf8, 0x37, 0x3d, 0x46, 0x5c, 0xe7, 0x3d,
  0x72, 0xa5, 0x0c, 0x3e, 0x3d, 0x59, 0xc8, 0xbd, 0xf1, 0xd3, 0xee, 0x3d,
  0xab, 0x63, 0xbb, 0x3d, 0xbf, 0x4b, 0x24, 0x3d, 0x43, 0xfc, 0xad, 0x3d,
  0x4a, 0x5b, 0x83, 0x3d, 0xe7, 0xb7, 0x54, 0x3d, 0x9e, 0x5a, 0x48, 0x3d,
  0xf5, 0xd0, 0x48, 0x3e, 0xd2, 0x46, 0x33, 0xbe, 0xde, 0x3d, 0xbd, 0xbc,
  0xa4, 0x1e, 0xe8, 0x3d, 0x16, 0x22, 0xe2, 0x3d, 0xbb, 0x88, 0xcd, 0xbe,
  0xb9, 0xcf, 0x2b, 0xbe, 0xf7, 0x89, 0xcd, 0xbd, 0x5a, 0xfe, 0x60, 0xbe,
  0xc8, 0x4a, 0xf1, 0x3d, 0xd6, 0xf5, 0xc2, 0x3e, 0xfb, 0x3e, 0x63, 0xbe,
  0x87, 0xfe, 0xfe, 0x3c, 0x3e, 0x75, 0x81, 0x3d, 0x4f, 0x6d, 0x7e, 0xbd,
  0xfb, 0x18, 0x10, 0x3c, 0xd9, 0xc7, 0x87, 0xbc, 0x45, 0xe0, 0x9e, 0xbd,
  0x2c, 0x65, 0xed, 0xbd, 0x8c, 0xc3, 0x90, 0x3c, 0x72, 0x21, 0x02, 0x3f,
  0xe2, 0x76, 0x05, 0xbf, 0x49, 0xdf, 0x26, 0xbe, 0x56, 0xdb, 0x25, 0x3d,
  0x85, 0x22, 0xfd, 0xbd, 0x4f, 0x87, 0xb4, 0xbd, 0x4a, 0x9c, 0xc0, 0x3d,
  0x95, 0xea, 0x94, 0xbe, 0x6e, 0x5f, 0x34, 0x3e, 0x63, 0xcc, 0x95, 0xbd,
  0xed, 0x38, 0x4b, 0xbd, 0x16, 0x5d, 0x15, 0xbb, 0xb1, 0x1a, 0xa3, 0x3c,
  0xfd, 0x0a, 0xcd, 0x3d, 0xf9, 0x6c, 0x33, 0x3d, 0xcf, 0x7c, 0xd6, 0xbe,
  0x7e, 0xe0, 0xc1, 0x3e, 0xd5, 0x97, 0x84, 0xbe, 0xcc, 0x05, 0x57, 0xbe,
  0x69, 0xb1, 0x6f, 0xbd, 0xa2, 0x2e, 0xa0, 0xbd, 0x94, 0xd1, 0xf9, 0x3c,
  0x0b, 0xb3, 0x67, 0xbd, 0x08, 0x43, 0x05, 0xbf, 0x11, 0x63, 0x1f, 0xbe,
  0x26, 0xef, 0xfb, 0xbd, 0xf6, 0xa0, 0x6c, 0x3c, 0xeb, 0x6f, 0x59, 0xbb,
  0x86, 0x43, 0xb0, 0xbd, 0xf2, 0xd5, 0x5b, 0xba, 0x08, 0xb7, 0x1b, 0x3c,
  0xeb, 0x50, 0x80, 0xbd, 0x9c, 0x11, 0x20, 0x3e, 0xff, 0x37, 0x0e, 0x3c,
  0x09, 0x3c, 0xe8, 0x3c, 0x98, 0xba, 0x11, 0x3e, 0x47, 0xf0, 0x26, 0x3d,
  0xdd, 0xe9, 0xd4, 0x3d, 0x2d, 0xef, 0x27, 0xbd, 0xf8, 0xba, 0xf6, 0x3c,
  0x1f, 0x1b, 0xee, 0xbc, 0xb6, 0xc7, 0xa5, 0x3d, 0x86, 0xb4, 0x15, 0x3e,
  0x0c, 0xbc, 0xaa, 0xbc, 0x0f, 0xe6, 0x63, 0xbd, 0x4e, 0xf1, 0x98, 0x3c,
  0x8c, 0x77, 0x12, 0x3e, 0x4d, 0x95, 0x01, 0x3d, 0x25, 0x7d, 0x09, 0x3f,
  0xdd, 0x17, 0x17, 0x3d, 0x75, 0xa2, 0x37, 0x3e, 0x61, 0xf4, 0x49, 0x3e,
  0xc0, 0xca, 0x66, 0xbc, 0x81, 0xb4, 0x4d, 0x3e, 0x0f, 0x80, 0xdd, 0xbd,
  0xdd, 0x51, 0xd2, 0x3c, 0xb6, 0x7f, 0x65, 0xbe, 0x9d, 0x92, 0xb1, 0x3d,
  0x8b, 0xd7, 0x2d, 0x3e, 0x04, 0x3e, 0x3e, 0x3b, 0x9c, 0x37, 0x25, 0x3e,
  0x6a, 0xdd, 0x9e, 0xbe, 0xd3, 0x3b, 0x82, 0x3e, 0x8a, 0x9d, 0x13, 0x3e,
  0x72, 0x0f, 0xb1, 0x3d, 0x27, 0xa4, 0x7a, 0xbe, 0xd9, 0xed, 0x67, 0x3c,
  0x8c, 0xae, 0x80, 0x3d, 0x12, 0xe4, 0x85, 0xbd, 0x0e, 0xc4, 0x80, 0xbe,
  0x5d, 0x5f, 0xb0, 0x3c, 0x47, 0x40, 0xd4, 0xbd, 0x68, 0xdf, 0x3e, 0xbd,
  0xf1, 0x88, 0xc8, 0x3d, 0x9f, 0x45, 0x29, 0x3e, 0x42, 0xaa, 0x14, 0xbd,
  0x13, 0x79, 0xdb, 0xbe, 0x84, 0x63, 0x4d, 0xbe, 0x11, 0xbe, 0x48, 0xbe,
  0x7f, 0xcb, 0x74, 0xbe, 0xce, 0xe3, 0x60, 0x3e, 0x19, 0xdf, 0xcc, 0xbe,
  0xe8, 0xdd, 0x02, 0xbf, 0x0b, 0xc7, 0x95, 0xbe, 0x3f, 0xb7, 0x6b, 0x3b,
  0x0f, 0xc0, 0xe6, 0xbe, 0x76, 0x64, 0x5c, 0xbe, 0xdf, 0x75, 0x49, 0x3d,
  0xbd, 0xf0, 0x07, 0x3e, 0xeb, 0xe7, 0xc4, 0xbe, 0x74, 0xdc, 0xa6, 0xbe,
  0x0c, 0x3a, 0xbe, 0x3d, 0xa0, 0x98, 0xb1, 0xbe, 0x3c, 0x8a, 0x4b, 0xbd,
  0x5f, 0xcb, 0x24, 0xbf, 0x07, 0x3d, 0x33, 0x3d, 0x73, 0xca, 0xcd, 0x3f,
  0x3b, 0x31, 0x1a, 0xbd, 0x41, 0x9f, 0xae, 0xbe, 0x3a, 0xa8, 0x82, 0xbe,
  0xa5, 0x1b, 0x96, 0xbd, 0x06, 0xf2, 0x28, 0xbd, 0xeb, 0xac, 0xcb, 0xbd,
  0xfd, 0x31, 0x8b, 0x3e, 0xed, 0x3f, 0x46, 0x3e, 0x56, 0x94, 0x3f, 0xbe,
  0x2c, 0x71, 0x00, 0xbe, 0x08, 0xa1, 0x28, 0xbd, 0x3e, 0x7d, 0xbf, 0x3d,
  0x8b, 0xdb, 0x84, 0xbe, 0xad, 0x8b, 0x2f, 0xbe, 0x3a, 0x88, 0x38, 0xbc,
  0x24, 0x38, 0x03, 0x40, 0x2d, 0x27, 0x00, 0x3d, 0x9a, 0xd1, 0x04, 0xbd,
  0xe4, 0x18, 0xd6, 0xbc, 0xef, 0x3c, 0x30, 0x3d, 0x30, 0xb5, 0x3d, 0xbc,
  0x63, 0x0d, 0x16, 0xbe, 0x22, 0xfe, 0x79, 0x3e, 0x4f, 0x17, 0x66, 0x3e,
  0xe9, 0xc5, 0xcc, 0xbd, 0xcb, 0x49, 0x7f, 0x3c, 0x0c, 0x6c, 0x9c, 0xbc,
  0x3a, 0x75, 0x8b, 0xbe, 0xd5, 0xcb, 0x86, 0xbd, 0x6b, 0xa3, 0x90, 0xbe,
  0x70, 0x59, 0x82, 0x3e, 0x36, 0x53, 0x18, 0x40, 0x7b, 0x4a, 0xda, 0xbd,
  0x8f, 0x42, 0x01, 0xbf, 0xa4, 0xce, 0x56, 0xbe, 0x46, 0x10, 0x2a, 0xbc,
  0x38, 0xec, 0x3e, 0x3e, 0x25, 0x75, 0x87, 0x3c, 0xc7, 0x9e, 0x80, 0x3e,
  0x05, 0x57, 0x44, 0x3d, 0xc5, 0xe7, 0x0c, 0x3e, 0x32, 0x05, 0x5f, 0xbe,
  0x05, 0x53, 0x7d, 0xbc, 0x74, 0x12, 0x94, 0xbe, 0x84, 0x01, 0x7e, 0xbc,
  0x64, 0xb4, 0x66, 0xbe, 0xe0, 0xbb, 0x40, 0x3e, 0xfa, 0xbc, 0x5c, 0x40,
  0xfb, 0xd4, 0xd6, 0xbe, 0xfd, 0x57, 0xd5, 0xbe, 0x3f, 0xd2, 0x94, 0xbe,
  0x83, 0xe3, 0x82, 0x3d, 0xe3, 0x71, 0xb5, 0xbe, 0xb3, 0xdd, 0x61, 0xbd,
  0xec, 0x88, 0x9a, 0x3e, 0xc2, 0x9d, 0x70, 0x3e, 0x38, 0x0e, 0xa5, 0xbd,
  0x85, 0x1f, 0xe0, 0xbe, 0x39, 0x7b, 0x08, 0xbd, 0x92, 0x87, 0xc7, 0xbe,
  0x83, 0x4c, 0xfe, 0xbd, 0xe8, 0xec, 0x88, 0xbe, 0x30, 0x06, 0x97, 0x3d,
  0x79, 0x44, 0x21, 0x40, 0xfa, 0xab, 0xaf, 0xbe, 0xf0, 0x9c, 0x14, 0xbf,
  0x65, 0x25, 0x8e, 0xbe, 0xda, 0x93, 0xa6, 0x3d, 0x87, 0xee, 0xc1, 0xbe,
  0x57, 0x1b, 0x62, 0x3d, 0xd4, 0x45, 0x9f, 0x3d, 0x47, 0xb4, 0xcc, 0x3e,
  0xa5, 0x0d, 0x67, 0x3c, 0x41, 0xdc, 0xb7, 0xbe, 0x23, 0xf4, 0xb1, 0x3d,
  0x1f, 0x49, 0xb1, 0xbe, 0x78, 0xf7, 0xbb, 0xbd, 0xc5, 0x8b, 0x2b, 0xbe,
  0x82, 0x5a, 0x86, 0x3d, 0xf2, 0x41, 0x15, 0x40, 0x58, 0x9e, 0x6c, 0x3c,
  0xbe, 0x0e, 0x8c, 0xbe, 0x85, 0x3a, 0xf8, 0xbd, 0x12, 0x90, 0xec, 0xb9,
  0xeb, 0x7b, 0xc1, 0xbd, 0x97, 0xeb, 0x78, 0xbe, 0xe6, 0xf2, 0x28, 0x3e,
  0x75, 0xf6, 0xd2, 0x3d, 0x65, 0x44, 0xaa, 0xbd, 0x55, 0x4a, 0x00, 0xbe,
  0xd2, 0x2b, 0x16, 0x3c, 0x1a, 0xb7, 0xb8, 0xbd, 0x9b, 0x37, 0x3a, 0x3b,
  0x82, 0x84, 0x3c, 0xbe, 0x42, 0xd7, 0xa4, 0xbb, 0x27, 0x39, 0x3d, 0x3f,
  0x69, 0x61, 0x39, 0x3d, 0x83, 0x31, 0x37, 0xbe, 0xaa, 0x77, 0x30, 0xbe,
  0xc7, 0x4f, 0xa6, 0x3b, 0x40, 0xb6, 0x78, 0xbe, 0x1d, 0x7d, 0x56, 0xbd,
  0x79, 0x7a, 0x36, 0xbe, 0x53, 0x1e, 0x07, 0xbe, 0x74, 0xc3, 0x85, 0x3d,
  0x7e, 0x5f, 0x76, 0xbe, 0x84, 0xac, 0xb9, 0xbe, 0x82, 0x79, 0x66, 0x3d,
  0x3d, 0x6b, 0xdc, 0x3e, 0xbe, 0xc6, 0xba, 0x3b, 0x24, 0xf5, 0xe4, 0x3c,
  0x94, 0xb5, 0x59, 0xbe, 0x61, 0x76, 0x0c, 0xbe, 0x05, 0x49, 0xaf, 0x3c,
  0xae, 0xa1, 0x2d, 0x3e, 0x9c, 0x5d, 0x85, 0x3e, 0xde, 0x66, 0x88, 0xbd,
  0xfb, 0x0a, 0x59, 0xbe, 0xec, 0xb3, 0xf1, 0x3b, 0x61, 0xaa, 0xfe, 0xbd,
  0x30, 0x9b, 0x18, 0x3e, 0xb3, 0x4e, 0xf1, 0x3d, 0x84, 0xcd, 0x06, 0xbe,
  0x12, 0x96, 0x3e, 0xbe, 0xd8, 0x00, 0xcf, 0x3e, 0x7d, 0x99, 0x07, 0xbe,
  0x00, 0x65, 0x9b, 0x3d, 0x1e, 0xf1, 0x85, 0xbd, 0x83, 0xaf, 0x8c, 0xbe,
  0xcd, 0xda, 0xcc, 0xbd, 0xa0, 0x03, 0xa9, 0x3d, 0xdc, 0x11, 0x6f, 0x3e,
  0x07, 0x18, 0xe2, 0xbd, 0x87, 0x76, 0x06, 0x3e, 0x97, 0x88, 0x6e, 0x3d,
  0x41, 0x8c, 0xd4, 0xbc, 0x25, 0x6b, 0xc4, 0x3d, 0x9c, 0xf4, 0xc1, 0x3d,
  0x41, 0xc7, 0xb2, 0xbd, 0xad, 0x48, 0x4c, 0xbe, 0x6e, 0xa7, 0x40, 0x3e,
  0x47, 0x8a, 0xc9, 0xbd, 0xcf, 0xd6, 0x4b, 0xbe, 0xd2, 0x8a, 0x59, 0xbe,
  0xde, 0x55, 0xcd, 0x3b, 0xdc, 0xac, 0x4d, 0xbd, 0xcb, 0xc7, 0xfb, 0xbd,
  0xf3, 0x14, 0x9f, 0x3d, 0x09, 0x49, 0x7e, 0xbe, 0x66, 0xa2, 0x72, 0xbe,
  0x2b, 0x2a, 0x67, 0x3d, 0x95, 0x33, 0xe6, 0x3d, 0xde, 0x40, 0xb4, 0x3d,
  0x6c, 0x4f, 0x8f, 0xbd, 0x40, 0xe7, 0x47, 0xbe, 0x4f, 0xaf, 0x82, 0xbd,
  0x02, 0x52, 0x2e, 0x3e, 0x2a, 0x9a, 0xca, 0xbd, 0x28, 0x20, 0x41, 0xbd,
  0x76, 0x57, 0x05, 0xbe, 0x62, 0x6f, 0xf1, 0x3d, 0x6b, 0x68, 0xd5, 0x3d,
  0x36, 0x43, 0x46, 0xbe, 0x1f, 0x2a, 0x57, 0xbd, 0x99, 0x86, 0x0d, 0x3c,
  0xc1, 0xa9, 0x30, 0x3e, 0xda, 0x89, 0x20, 0x3d, 0x85, 0xfd, 0x3e, 0xbe,
  0xab, 0x88, 0x17, 0xbd, 0x23, 0xc8, 0x03, 0xbe, 0xb2, 0x0f, 0xcd, 0xbe,
  0xbc, 0xbc, 0xc7, 0x3d, 0xa0, 0x91, 0x96, 0x3d, 0x66, 0x73, 0x71, 0x3d,
  0xfe, 0x00, 0x1c, 0xbe, 0xf4, 0x47, 0x39, 0x3e, 0xcb, 0xdc, 0xc0, 0xbe,
  0xad, 0x8a, 0x79, 0xbd, 0x27, 0x18, 0x02, 0x3c, 0x75, 0x9a, 0x25, 0x3d,
  0xe1, 0xab, 0xc7, 0x3d, 0x66, 0xd1, 0x27, 0x3e, 0xd2, 0x39, 0xd3, 0xbd,
  0xf5, 0x10, 0x5a, 0xbe, 0x22, 0x23, 0x0b, 0x3e, 0x9b, 0x52, 0x6b, 0x3c,
  0x5a, 0x2e, 0x9d, 0xbe, 0x83, 0xdb, 0x90, 0x3d, 0xf0, 0x03, 0x1a, 0xbd,
  0x64, 0xea, 0x5a, 0xbe, 0xbb, 0x1c, 0xfc, 0xbd, 0x8f, 0x22, 0x0a, 0xbe,
  0x6b, 0x68, 0xaa, 0xbe, 0x66, 0x74, 0xf5, 0xbd, 0xe2, 0xfe, 0x13, 0xbb,
  0x64, 0xc9, 0xdb, 0x3d, 0x36, 0xb8, 0x61, 0x3e, 0x24, 0xa6, 0xa0, 0x3d,
  0xdd, 0x55, 0x56, 0xbc, 0xf1, 0x64, 0x5e, 0xbd, 0x95, 0xee, 0x53, 0x3e,
  0x58, 0x8c, 0x16, 0xbe, 0xda, 0x9a, 0xd2, 0xbe, 0xdf, 0xb4, 0x11, 0x3d,
  0x76, 0xf0, 0x09, 0x3f, 0x30, 0x65, 0x01, 0xbe, 0x1b, 0x5a, 0x75, 0xbc,
  0x28, 0xe9, 0xcf, 0x3d, 0x67, 0x76, 0xdc, 0x3d, 0xd0, 0xc5, 0x2e, 0xbc,
  0xd2, 0xae, 0xbb, 0xbd, 0x82, 0x3c, 0x2e, 0xbe, 0xa9, 0xb4, 0xc8, 0xbd,
  0xea, 0x13, 0xc1, 0xbd, 0x13, 0x4e, 0x26, 0x3e, 0xa9, 0x84, 0xce, 0xbd,
  0x90, 0xa6, 0x50, 0xbd, 0x73, 0x3e, 0x18, 0x3e, 0x7e, 0xde, 0x2f, 0xbe,
  0x5b, 0x77, 0x13, 0xbe, 0x8c, 0xa2, 0xae, 0x3e, 0xa2, 0x1f, 0xe6, 0xbd,
  0x88, 0xbe, 0x81, 0xbd, 0x56, 0x4f, 0x80, 0xbe, 0xb5, 0x33, 0x49, 0x3d,
  0x71, 0x07, 0x09, 0x3d, 0x7c, 0x39, 0x13, 0x3e, 0xad, 0x4d, 0x72, 0xbe,
  0x3a, 0x31, 0x13, 0x3e, 0xe5, 0xa9, 0x43, 0x3d, 0xc2, 0x8e, 0x08, 0xbe,
  0xcc, 0x6d, 0x16, 0x3d, 0x9d, 0x8a, 0x07, 0x3e, 0x5f, 0x53, 0x68, 0xbe,
  0x2a, 0x4a, 0x42, 0xbe, 0xf7, 0x19, 0xae, 0x3d, 0xdb, 0xf5, 0x42, 0xbd,
  0xe2, 0xaf, 0x79, 0xbe, 0x9e, 0x31, 0x51, 0xbe, 0xe2, 0x31, 0xdf, 0x3a,
  0x7c, 0x0a, 0x05, 0xbe, 0x6f, 0xcd, 0x1e, 0xbc, 0x42, 0xb9, 0x45, 0xbe,
  0xda, 0xde, 0x10, 0xbe, 0xbb, 0x59, 0xe8, 0x3d, 0x1c, 0x89, 0x10, 0x3e,
  0xbb, 0xd6, 0x0f, 0x3c, 0xc9, 0xe6, 0x25, 0xbd, 0x4c, 0x4e, 0xf9, 0xbd,
  0x20, 0xa9, 0x17, 0xbe, 0xf2, 0xd4, 0x9b, 0xbe, 0x01, 0x23, 0xa1, 0xbd,
  0x9d, 0xeb, 0xf7, 0x3d, 0x41, 0x01, 0x95, 0xbd, 0xe8, 0xd3, 0x82, 0xbe,
  0x01, 0xcf, 0x70, 0xbd, 0xa4, 0xff, 0x42, 0xbe, 0x17, 0xeb, 0xe8, 0xbd,
  0xcf, 0x15, 0x35, 0x3c, 0xef, 0xe7, 0x3c, 0x3e, 0x81, 0x9b, 0x00, 0xbc,
  0x2f, 0x54, 0x06, 0x3e, 0xce, 0xa5, 0x11, 0xbe, 0x58, 0x68, 0x0d, 0x3c,
  0xb9, 0x20, 0xd2, 0x3d, 0xb9, 0x8e, 0x65, 0xbe, 0xc7, 0xf0, 0xd9, 0xbe,
  0x40, 0xd3, 0x8e, 0xbe, 0xa4, 0x86, 0xec, 0xbd, 0x82, 0x5d, 0x58, 0xbe,
  0x51, 0xbd, 0x94, 0xbd, 0x44, 0xf6, 0x17, 0xbe, 0xb3, 0x18, 0x6d, 0xbe,
  0x8b, 0x0d, 0x0c, 0xbe, 0x24, 0x8e, 0x09, 0x3e, 0x7c, 0x26, 0x12, 0xbe,
  0xc0, 0xa0, 0x25, 0xbc, 0xdd, 0x21, 0xc0, 0xbd, 0xf3, 0x18, 0x39, 0x3e,
  0xfc, 0xaa, 0x44, 0xbd, 0x2c, 0x82, 0x06, 0xbe, 0x08, 0x5b, 0x67, 0x3a,
  0x60, 0x66, 0xbc, 0xbd, 0xa6, 0xc1, 0x59, 0xbe, 0xb5, 0x65, 0xf1, 0x3c,
  0xc2, 0x1a, 0x6d, 0xbe, 0x11, 0x1c, 0x16, 0xbe, 0x42, 0x0b, 0x02, 0xbd,
  0xc7, 0xfc, 0xb2, 0xbe, 0x32, 0x7e, 0xb6, 0xbd, 0x53, 0x6a, 0x8d, 0x3d,
  0xa7, 0xb2, 0x36, 0xbe, 0x9d, 0x08, 0x49, 0xbd, 0xcc, 0xbb, 0xc1, 0xbd,
  0x25, 0xc7, 0xa7, 0x3d, 0x56, 0x18, 0xf7, 0x3d, 0x0a, 0xc3, 0x20, 0x3e,
  0x74, 0xa4, 0x00, 0xbe, 0x16, 0x9d, 0xe5, 0xbd, 0x7e, 0x9f, 0x83, 0xbd,
  0x2b, 0x80, 0xe0, 0xbd, 0xfe, 0xd8, 0xc3, 0xbd, 0x6b, 0x6f, 0x7d, 0xbe,
  0x6d, 0x00, 0x81, 0x3d, 0xd6, 0x39, 0x16, 0x3d, 0x68, 0x5a, 0x1b, 0xbe,
  0x21, 0x09, 0x73, 0xbe, 0xa3, 0x9b, 0x29, 0xbe, 0xea, 0x04, 0xb3, 0xbc,
  0x7a, 0x1e, 0x05, 0x3e, 0x0d, 0x16, 0x8d, 0xbe, 0x43, 0x18, 0x74, 0xbe,
  0x3a, 0x97, 0x6c, 0x3e, 0x3c, 0x3e, 0x96, 0xbd, 0x88, 0x23, 0x1b, 0xbe,
  0xc1, 0xbd, 0x50, 0xbe, 0xde, 0x00, 0xe8, 0xbd, 0x73, 0x0a, 0x11, 0xbe,
  0x99, 0xda, 0xa9, 0xbc, 0x92, 0x72, 0x29, 0x3d, 0x78, 0x95, 0x9f, 0xbd,
  0xd2, 0x69, 0xe2, 0x3d, 0x05, 0x55, 0xc7, 0xbd, 0x75, 0x59, 0x2c, 0xbf,
  0x22, 0xe7, 0xf5, 0x3d, 0x16, 0x97, 0x88, 0xbd, 0x71, 0x1f, 0x6c, 0xbc,
  0x9d, 0xeb, 0x0f, 0xbe, 0x0d, 0x0f, 0xb7, 0x3e, 0x88, 0xc5, 0x60, 0xbe,
  0x25, 0x27, 0xea, 0x3c, 0x8a, 0xd8, 0x5c, 0x3d, 0xe1, 0x47, 0xab, 0xbc,
  0x4b, 0x46, 0x26, 0x3e, 0x23, 0xd6, 0x5e, 0xbe, 0xda, 0x61, 0x32, 0xbe,
  0x35, 0xb9, 0xd7, 0xbd, 0x9a, 0x73, 0x25, 0x3e, 0x56, 0xe2, 0xb6, 0x3d,
  0x4d, 0xec, 0x2d, 0xbe, 0x94, 0x59, 0x0b, 0x3a, 0xe8, 0xac, 0x51, 0x3c,
  0x93, 0xc0, 0x56, 0x3c, 0xb4, 0x96, 0x22, 0xbe, 0x22, 0x4b, 0xd3, 0x3e,
  0xbc, 0x97, 0x14, 0xbe, 0x59, 0x9f, 0x90, 0xbd, 0x1b, 0x31, 0x6f, 0xbd,
  0x74, 0x4a, 0x6f, 0x3c, 0x7d, 0x4b, 0x58, 0x3e, 0x8a, 0x46, 0x84, 0x3d,
  0x97, 0x66, 0xb3, 0x3c, 0x95, 0xcf, 0x90, 0xbe, 0xad, 0x39, 0xcd, 0x3c,
  0x05, 0x43, 0x11, 0xbd, 0xd7, 0xac, 0xcc, 0xbe, 0x35, 0x68, 0x19, 0x3e,
  0x1f, 0xac, 0xc7, 0xbd, 0x5a, 0x6d, 0x15, 0xbe, 0x18, 0x27, 0x1b, 0x3e,
  0x51, 0x8d, 0x76, 0x3d, 0x45, 0xc4, 0x3f, 0xbe, 0xb6, 0xa4, 0xdd, 0xbd,
  0x14, 0xc7, 0xe6, 0x3c, 0x8c, 0x4f, 0x47, 0x3e, 0xa1, 0xaa, 0x95, 0x3e,
  0xd5, 0x91, 0x77, 0x3e, 0x4e, 0x39, 0x7c, 0xbe, 0x24, 0x65, 0x2c, 0xbe,
  0xf4, 0x4d, 0x7e, 0x3d, 0x25, 0x8b, 0x6f, 0xbd, 0x8f, 0x39, 0xd7, 0xbe,
  0x0e, 0x13, 0x2a, 0x3e, 0xed, 0x2d, 0x83, 0xbd, 0x17, 0x02, 0x91, 0x3d,
  0x2a, 0x5a, 0x11, 0x3e, 0xae, 0xd2, 0x00, 0x3f, 0x64, 0x2d, 0xc1, 0xbe,
  0x7e, 0x26, 0x96, 0xbd, 0x0c, 0x7d, 0x0c, 0x3e, 0xfe, 0xc4, 0xec, 0xbc,
  0xb2, 0xb1, 0x63, 0x3e, 0xa6, 0x0c, 0x7a, 0x3e, 0xce, 0xfd, 0xfd, 0xbc,
  0x08, 0x98, 0x08, 0xbe, 0x47, 0x84, 0x35, 0x3e, 0x8b, 0xc8, 0x04, 0x3d,
  0xd5, 0x30, 0xda, 0xbe, 0x33, 0xd1, 0x58, 0xbe, 0x94, 0x9f, 0xe0, 0xbd,
  0xd6, 0x5f, 0x14, 0xbd, 0x1b, 0x06, 0x54, 0xbd, 0xf7, 0xe6, 0x09, 0x3f,
  0x7c, 0xdd, 0x2f, 0xbe, 0x63, 0xe0, 0x85, 0xbc, 0x50, 0x9b, 0x4e, 0x3d,
  0x58, 0x03, 0x90, 0xbd, 0x21, 0x58, 0x06, 0xbe, 0x80, 0x11, 0x20, 0x3d,
  0x1f, 0x13, 0x40, 0xbd, 0xe8, 0xca, 0x0a, 0xbe, 0xef, 0xfb, 0x53, 0xbe,
  0xe3, 0x9a, 0x9f, 0x3c, 0xb2, 0xd4, 0x18, 0xbf, 0x93, 0x2c, 0xf9, 0xbe,
  0x1a, 0xa4, 0x5d, 0xbe, 0xa3, 0x80, 0xb6, 0xbd, 0x70, 0x87, 0x97, 0x3c,
  0x46, 0xde, 0x4d, 0x3f, 0x40, 0xef, 0x34, 0xbe, 0x76, 0xaf, 0x29, 0xbd,
  0x4a, 0x72, 0x9d, 0xbe, 0x62, 0xf5, 0x8a, 0xbd, 0x7a, 0x81, 0xae, 0xbe,
  0x76, 0x3d, 0x25, 0x3e, 0x25, 0x08, 0x81, 0x3d, 0x0d, 0x1d, 0x4e, 0xbe,
  0x55, 0x3c, 0xd5, 0xbe, 0xab, 0x92, 0x49, 0xbd, 0x36, 0x44, 0xb1, 0xbe,
  0x6f, 0xe4, 0xdd, 0xbe, 0x65, 0xdd, 0x46, 0x3d, 0x80, 0x48, 0x5b, 0x3d,
  0x05, 0xc5, 0xa6, 0xbd, 0x06, 0x6d, 0xe2, 0xbe, 0xab, 0x97, 0x57, 0xbe,
  0x6c, 0xce, 0xa4, 0xbc, 0xe3, 0xab, 0x3e, 0x3e, 0x01, 0x8a, 0x27, 0xbe,
  0x6a, 0x15, 0x4d, 0xbf, 0x89, 0xee, 0x22, 0x3e, 0x00, 0x74, 0x89, 0x3d,
  0xf1, 0x90, 0x89, 0xbe, 0xab, 0x4a, 0x7e, 0x3d, 0x1d, 0xee, 0x80, 0xbe,
  0x69, 0x4a, 0x50, 0xbd, 0x87, 0xd4, 0xe1, 0xbc, 0x5a, 0xaa, 0x91, 0x3a,
  0xde, 0xd2, 0x81, 0xbd, 0x62, 0xc6, 0x1f, 0xbe, 0xaa, 0x98, 0x15, 0x3c,
  0x14, 0xf6, 0xc0, 0x3d, 0x04, 0x53, 0x9a, 0xbe, 0x35, 0x4e, 0x1e, 0xbe,
  0x82, 0xb7, 0x3b, 0x3f, 0xf3, 0x95, 0x91, 0xbd, 0xb3, 0x98, 0x11, 0xbe,
  0x03, 0x55, 0x09, 0x3e, 0x0e, 0xbf, 0xb2, 0xbe, 0x2a, 0xb6, 0xad, 0xbd,
  0xfe, 0xfb, 0x2c, 0x3e, 0x67, 0x1f, 0x86, 0x3d, 0x13, 0x9a, 0xc8, 0xbb,
  0xe2, 0xb5, 0xe6, 0x3d, 0x8f, 0xb6, 0xf3, 0xbd, 0xeb, 0x82, 0x96, 0x3c,
  0x71, 0xa1, 0x26, 0xbd, 0x49, 0x0c, 0x09, 0xbe, 0x89, 0x1f, 0x24, 0xbd,
  0xa0, 0x59, 0x98, 0x3d, 0xa7, 0x82, 0xcd, 0x3e, 0x8b, 0x75, 0x0a, 0xbe,
  0x76, 0xf6, 0x3c, 0xbd, 0xf5, 0x79, 0x5c, 0x3d, 0x6e, 0x0a, 0xec, 0xbd,
  0xcd, 0x2a, 0x9d, 0x3d, 0x9e, 0xfc, 0xb1, 0x3d, 0x89, 0xac, 0xdb, 0xbc,
  0x44, 0x43, 0x23, 0xbe, 0x76, 0x1c, 0xfe, 0x3d, 0x58, 0xab, 0xd0, 0xbd,
  0xfd, 0x2b, 0xa0, 0xbd, 0x52, 0x3d, 0x40, 0x3e, 0xb1, 0xaa, 0x33, 0xbe,
  0x60, 0x76, 0x36, 0xbe, 0x62, 0x8b, 0x8f, 0x3d, 0x85, 0x88, 0x9a, 0x3e,
  0xe9, 0x60, 0xc9, 0xbd, 0x0e, 0x07, 0x5d, 0xbd, 0x86, 0xe6, 0x1a, 0xbe,
  0x85, 0x7d, 0x8f, 0xbc, 0x64, 0xe9, 0x0c, 0xbe, 0x6b, 0x82, 0xd4, 0x3c,
  0x6e, 0x63, 0x04, 0x3e, 0x89, 0x36, 0xe8, 0xbc, 0x5a, 0xe0, 0xf0, 0xbd,
  0x61, 0xef, 0x02, 0xbe, 0x18, 0x05, 0x8e, 0x3d, 0xb1, 0x35, 0x92, 0xbb,
  0x81, 0xc9, 0x4e, 0xbe, 0x16, 0xf4, 0x5d, 0x3d, 0x61, 0x69, 0x93, 0x3d,
  0x7a, 0xf0, 0x7b, 0x3e, 0xdc, 0xf9, 0x4d, 0x3e, 0x2c, 0x5e, 0xbd, 0xbc,
  0x21, 0x9c, 0x00, 0xbe, 0x0a, 0x21, 0x9f, 0xbe, 0x61, 0x00, 0x5a, 0xbe,
  0xb3, 0x1e, 0xda, 0xbd, 0x95, 0x3a, 0xe5, 0xbd, 0x9b, 0xd4, 0xa8, 0x3d,
  0x55, 0x12, 0x65, 0xbd, 0xc1, 0xb7, 0xab, 0x3d, 0x6a, 0x95, 0xb7, 0xbd,
  0xc4, 0x68, 0x4e, 0x3e, 0xce, 0x14, 0x0a, 0x3d, 0xc5, 0xb9, 0x3c, 0xbe,
  0x0e, 0xd5, 0x37, 0xbe, 0x11, 0xec, 0x76, 0x3e, 0x27, 0x15, 0x0b, 0xbc,
  0xf2, 0x8f, 0x19, 0xbe, 0xee, 0x8c, 0xd7, 0x3d, 0xe7, 0xc4, 0xe0, 0xbd,
  0x37, 0xd1, 0x42, 0xbd, 0xd2, 0xcf, 0xb0, 0x3c, 0xdf, 0x34, 0x89, 0xbd,
  0xe9, 0xed, 0xaa, 0x3d, 0xdb, 0x64, 0xff, 0x3d, 0x70, 0x56, 0x2c, 0xbe,
  0x4c, 0xbc, 0x3f, 0xbe, 0xa2, 0xad, 0x62, 0x3e, 0x1f, 0x91, 0xbd, 0xbb,
  0x04, 0xfd, 0x96, 0xbc, 0xe6, 0x79, 0x20, 0xbe, 0xf0, 0x05, 0xab, 0xbc,
  0xba, 0x3b, 0x20, 0x3e, 0xa2, 0xca, 0xb5, 0xbd, 0x03, 0xc3, 0x36, 0xbd,
  0x22, 0x2f, 0x9f, 0xbd, 0x4a, 0x71, 0xd6, 0xbd, 0x4e, 0x86, 0xbc, 0xbd,
  0x37, 0x8c, 0x36, 0x3b, 0xd5, 0xcd, 0x04, 0x3e, 0x61, 0xa9, 0xf9, 0x3d,
  0xf9, 0x35, 0x5a, 0x3d, 0xdf, 0x56, 0x92, 0xbe, 0x13, 0xf2, 0x36, 0xbd,
  0x53, 0x07, 0x79, 0xbc, 0x0c, 0x46, 0x81, 0xbe, 0x45, 0xe9, 0x5b, 0xbe,
  0xab, 0x91, 0xc9, 0x3d, 0x45, 0x99, 0x1b, 0x3e, 0x6f, 0xfe, 0xd8, 0xbd,
  0x82, 0xee, 0x80, 0xbd, 0x62, 0xfd, 0xff, 0xff, 0x10, 0x00, 0x00, 0x00,
  0x07, 0x00, 0x00, 0x00, 0x14, 0x00, 0x00, 0x00, 0x2c, 0x00, 0x00, 0x00,
  0x02, 0x00, 0x00, 0x00, 0x10, 0x00, 0x00, 0x00, 0x70, 0x00, 0x00, 0x00,
  0x17, 0x00, 0x00, 0x00, 0x73, 0x65, 0x71, 0x75, 0x65, 0x6e, 0x74, 0x69,
  0x61, 0x6c, 0x2f, 0x64, 0x65, 0x6e, 0x73, 0x65, 0x2f, 0x4d, 0x61, 0x74,
  0x4d, 0x75, 0x6c, 0x00, 0xcc, 0xfc, 0xff, 0xff, 0xd6, 0xfd, 0xff, 0xff,
  0x04, 0x00, 0x00, 0x00, 0x08, 0x00, 0x00, 0x00, 0xff, 0xff, 0xff, 0xff,
  0x70, 0x00, 0x00, 0x00, 0x00, 0x00, 0x0e, 0x00, 0x18, 0x00, 0x08, 0x00,
  0x07, 0x00, 0x0c, 0x00, 0x10, 0x00, 0x14, 0x00, 0x0e, 0x00, 0x00, 0x00,
  0x00, 0x00, 0x00, 0x02, 0x10, 0x00, 0x00, 0x00, 0x06, 0x00, 0x00, 0x00,
  0x10, 0x00, 0x00, 0x00, 0x2c, 0x00, 0x00, 0x00, 0x01, 0x00, 0x00, 0x00,
  0x02, 0x00, 0x00, 0x00, 0x18, 0x00, 0x00, 0x00, 0x73, 0x65, 0x71, 0x75,
  0x65, 0x6e, 0x74, 0x69, 0x61, 0x6c, 0x2f, 0x66, 0x6c, 0x61, 0x74, 0x74,
  0x65, 0x6e, 0x2f, 0x43, 0x6f, 0x6e, 0x73, 0x74, 0x00, 0x00, 0x00, 0x00,
  0x34, 0xfd, 0xff, 0xff, 0x3e, 0xfe, 0xff, 0xff, 0x04, 0x00, 0x00, 0x00,
  0x10, 0x00, 0x00, 0x00, 0x78, 0x6b, 0x05, 0xc0, 0xee, 0x0d, 0x2b, 0xc0,
  0x99, 0xa2, 0x17, 0xc0, 0x12, 0x2f, 0x34, 0x40, 0x26, 0xfe, 0xff, 0xff,
  0x10, 0x00, 0x00, 0x00, 0x05, 0x00, 0x00, 0x00, 0x10, 0x00, 0x00, 0x00,
  0x44, 0x00, 0x00, 0x00, 0x01, 0x00, 0x00, 0x00, 0x04, 0x00, 0x00, 0x00,
  0x32, 0x00, 0x00, 0x00, 0x73, 0x65, 0x71, 0x75, 0x65, 0x6e, 0x74, 0x69,
  0x61, 0x6c, 0x2f, 0x64, 0x65, 0x6e, 0x73, 0x65, 0x5f, 0x31, 0x2f, 0x42,
  0x69, 0x61, 0x73, 0x41, 0x64, 0x64, 0x2f, 0x52, 0x65, 0x61, 0x64, 0x56,
  0x61, 0x72, 0x69, 0x61, 0x62, 0x6c, 0x65, 0x4f, 0x70, 0x2f, 0x72, 0x65,
  0x73, 0x6f, 0x75, 0x72, 0x63, 0x65, 0x00, 0x00, 0xa8, 0xfd, 0xff, 0xff,
  0xb2, 0xfe, 0xff, 0xff, 0x04, 0x00, 0x00, 0x00, 0x40, 0x00, 0x00, 0x00,
  0xe4, 0xca, 0xf1, 0xbe, 0xdb, 0xdd, 0xb5, 0xbf, 0x3d, 0xf2, 0x5c, 0xbf,
  0xcf, 0x6e, 0x65, 0x40, 0x1d, 0xc6, 0x21, 0x3e, 0x62, 0xdc, 0x89, 0xbe,
  0x47, 0xed, 0x3c, 0xbf, 0x15, 0x43, 0x19, 0xbf, 0x8f, 0x41, 0x7a, 0x40,
  0x9e, 0x6d, 0xd3, 0xbf, 0xb3, 0x07, 0xfe, 0xbf, 0x9f, 0x90, 0xa3, 0xbf,
  0x1a, 0xbf, 0x9a, 0xbe, 0x11, 0xc0, 0x25, 0xbe, 0x32, 0x71, 0x7e, 0xbe,
  0x88, 0xd2, 0xe9, 0xbe, 0xca, 0xfe, 0xff, 0xff, 0x10, 0x00, 0x00, 0x00,
  0x04, 0x00, 0x00, 0x00, 0x10, 0x00, 0x00, 0x00, 0x44, 0x00, 0x00, 0x00,
  0x01, 0x00, 0x00, 0x00, 0x10, 0x00, 0x00, 0x00, 0x30, 0x00, 0x00, 0x00,
  0x73, 0x65, 0x71, 0x75, 0x65, 0x6e, 0x74, 0x69, 0x61, 0x6c, 0x2f, 0x64,
  0x65, 0x6e, 0x73, 0x65, 0x2f, 0x42, 0x69, 0x61, 0x73, 0x41, 0x64, 0x64,
  0x2f, 0x52, 0x65, 0x61, 0x64, 0x56, 0x61, 0x72, 0x69, 0x61, 0x62, 0x6c,
  0x65, 0x4f, 0x70, 0x2f, 0x72, 0x65, 0x73, 0x6f, 0x75, 0x72, 0x63, 0x65,
  0x00, 0x00, 0x00, 0x00, 0x4c, 0xfe, 0xff, 0xff, 0x56, 0xff, 0xff, 0xff,
  0x04, 0x00, 0x00, 0x00, 0x40, 0x00, 0x00, 0x00, 0x18, 0xac, 0x55, 0x3e,
  0xc4, 0x61, 0xdf, 0x3d, 0x33, 0x07, 0xc7, 0xbf, 0x16, 0xd5, 0x72, 0x3e,
  0xd1, 0x62, 0xd7, 0xbc, 0x8d, 0x7f, 0xc7, 0xbe, 0xb6, 0xd9, 0xe0, 0xbf,
  0xff, 0xe0, 0xe5, 0xbf, 0x7a, 0x80, 0x99, 0xbf, 0x32, 0x25, 0x76, 0xbf,
  0xe3, 0xd4, 0x74, 0x3f, 0x01, 0x5b, 0xc3, 0xbf, 0xda, 0xa5, 0x13, 0x3d,
  0xf2, 0x06, 0xdc, 0xbf, 0x8d, 0x21, 0x13, 0xc0, 0xc7, 0x1f, 0xa9, 0x40,
  0x6e, 0xff, 0xff, 0xff, 0x10, 0x00, 0x00, 0x00, 0x03, 0x00, 0x00, 0x00,
  0x10, 0x00, 0x00, 0x00, 0x48, 0x00, 0x00, 0x00, 0x01, 0x00, 0x00, 0x00,
  0x10, 0x00, 0x00, 0x00, 0x33, 0x00, 0x00, 0x00, 0x73, 0x65, 0x71, 0x75,
  0x65, 0x6e, 0x74, 0x69, 0x61, 0x6c, 0x2f, 0x63, 0x6f, 0x6e, 0x76, 0x32,
  0x64, 0x5f, 0x31, 0x2f, 0x42, 0x69, 0x61, 0x73, 0x41, 0x64, 0x64, 0x2f,
  0x52, 0x65, 0x61, 0x64, 0x56, 0x61, 0x72, 0x69, 0x61, 0x62, 0x6c, 0x65,
  0x4f, 0x70, 0x2f, 0x72, 0x65, 0x73, 0x6f, 0x75, 0x72, 0x63, 0x65, 0x00,
  0x04, 0x00, 0x06, 0x00, 0x04, 0x00, 0x00, 0x00, 0x00, 0x00, 0x06, 0x00,
  0x08, 0x00, 0x04, 0x00, 0x06, 0x00, 0x00, 0x00, 0x04, 0x00, 0x00, 0x00,
  0x20, 0x00, 0x00, 0x00, 0x7c, 0xb7, 0xc1, 0xbe, 0x18, 0xee, 0x58, 0xc0,
  0x26, 0x41, 0x5c, 0xbf, 0x29, 0x07, 0xa2, 0xbf, 0x16, 0x6b, 0x15, 0xc0,
  0x34, 0xe6, 0xaa, 0xbe, 0x97, 0xd5, 0x68, 0xbf, 0xd1, 0xaa, 0x08, 0xc0,
  0x00, 0x00, 0x0e, 0x00, 0x14, 0x00, 0x04, 0x00, 0x00, 0x00, 0x08, 0x00,
  0x0c, 0x00, 0x10, 0x00, 0x0e, 0x00, 0x00, 0x00, 0x10, 0x00, 0x00, 0x00,
  0x02, 0x00, 0x00, 0x00, 0x10, 0x00, 0x00, 0x00, 0x44, 0x00, 0x00, 0x00,
  0x01, 0x00, 0x00, 0x00, 0x08, 0x00, 0x00, 0x00, 0x31, 0x00, 0x00, 0x00,
  0x73, 0x65, 0x71, 0x75, 0x65, 0x6e, 0x74, 0x69, 0x61, 0x6c, 0x2f, 0x63,
  0x6f, 0x6e, 0x76, 0x32, 0x64, 0x2f, 0x42, 0x69, 0x61, 0x73, 0x41, 0x64,
  0x64, 0x2f, 0x52, 0x65, 0x61, 0x64, 0x56, 0x61, 0x72, 0x69, 0x61, 0x62,
  0x6c, 0x65, 0x4f, 0x70, 0x2f, 0x72, 0x65, 0x73, 0x6f, 0x75, 0x72, 0x63,
  0x65, 0x00, 0x00, 0x00, 0x90, 0xff, 0xff, 0xff, 0x14, 0x00, 0x18, 0x00,
  0x04, 0x00, 0x00, 0x00, 0x08, 0x00, 0x0c, 0x00, 0x10, 0x00, 0x00, 0x00,
  0x00, 0x00, 0x14, 0x00, 0x14, 0x00, 0x00, 0x00, 0x14, 0x00, 0x00, 0x00,
  0x01, 0x00, 0x00, 0x00, 0x20, 0x00, 0x00, 0x00, 0x44, 0x00, 0x00, 0x00,
  0x2c, 0x00, 0x00, 0x00, 0x04, 0x00, 0x00, 0x00, 0x01, 0x00, 0x00, 0x00,
  0x40, 0x00, 0x00, 0x00, 0x03, 0x00, 0x00, 0x00, 0x01, 0x00, 0x00, 0x00,
  0x0c, 0x00, 0x00, 0x00, 0x63, 0x6f, 0x6e, 0x76, 0x32, 0x64, 0x5f, 0x69,
  0x6e, 0x70, 0x75, 0x74, 0x00, 0x00, 0x00, 0x00, 0x04, 0x00, 0x00, 0x00,
  0xff, 0xff, 0xff, 0xff, 0x40, 0x00, 0x00, 0x00, 0x03, 0x00, 0x00, 0x00,
  0x01, 0x00, 0x00, 0x00, 0xfc, 0xff, 0xff, 0xff, 0x04, 0x00, 0x04, 0x00,
  0x04, 0x00, 0x00, 0x00
};

unsigned int model_tflite_len = 13120;// Fill the int in `src/model.cc` here